{
  "version": "1.0",
  "truncation": {
    "direction": "Right",
    "max_length": 512,
    "strategy": "LongestFirst",
    "stride": 0
  },
  "padding": {
    "strategy": "BatchLongest",
    "direction": "Right",
    "pad_to_multiple_of": null,
    "pad_id": 3,
    "pad_type_id": 0,
    "pad_token": "[PAD]"
  },
  "added_tokens": [
    {
      "id": 0,
      "content": "[CLS]",
      "single_word": false,
      "lstrip": false,
      "rstrip": false,
      "normalized": false,
      "special": true
    },
    {
      "id": 1,
      "content": "[SEP]",
      "single_word": false,
      "lstrip": false,
      "rstrip": false,
      "normalized": false,
      "special": true
    },
    {
      "id": 2,
      "content": "[UNK]",
      "single_word": false,
      "lstrip": false,
      "rstrip": false,
      "normalized": false,
      "special": true
    },
    {
      "id": 3,
      "content": "[PAD]",
      "single_word": false,
      "lstrip": false,
      "rstrip": false,
      "normalized": false,
      "special": true
    },
    {
      "id": 4,
      "content": "[MASK]",
      "single_word": false,
      "lstrip": false,
      "rstrip": false,
      "normalized": false,
      "special": true
    },
    {
      "id": 30000,
      "content": "</s>",
      "single_word": false,
      "lstrip": false,
      "rstrip": false,
      "normalized": false,
      "special": true
    },
    {
      "id": 30001,
      "content": "<extra_id_0>",
      "single_word": false,
      "lstrip": false,
      "rstrip": false,
      "normalized": false,
      "special": true
    },
    {
      "id": 30002,
      "content": "<extra_id_1>",
      "single_word": false,
      "lstrip": false,
      "rstrip": false,
      "normalized": false,
      "special": true
    },
    {
      "id": 30003,
      "content": "<extra_id_2>",
      "single_word": false,
      "lstrip": false,
      "rstrip": false,
      "normalized": false,
      "special": true
    },
    {
      "id": 30004,
      "content": "<extra_id_3>",
      "single_word": false,
      "lstrip": false,
      "rstrip": false,
      "normalized": false,
      "special": true
    },
    {
      "id": 30005,
      "content": "<extra_id_4>",
      "single_word": false,
      "lstrip": false,
      "rstrip": false,
      "normalized": false,
      "special": true
    },
    {
      "id": 30006,
      "content": "<extra_id_5>",
      "single_word": false,
      "lstrip": false,
      "rstrip": false,
      "normalized": false,
      "special": true
    },
    {
      "id": 30007,
      "content": "<extra_id_6>",
      "single_word": false,
      "lstrip": false,
      "rstrip": false,
      "normalized": false,
      "special": true
    },
    {
      "id": 30008,
      "content": "<extra_id_7>",
      "single_word": false,
      "lstrip": false,
      "rstrip": false,
      "normalized": false,
      "special": true
    },
    {
      "id": 30009,
      "content": "<extra_id_8>",
      "single_word": false,
      "lstrip": false,
      "rstrip": false,
      "normalized": false,
      "special": true
    },
    {
      "id": 30010,
      "content": "<extra_id_9>",
      "single_word": false,
      "lstrip": false,
      "rstrip": false,
      "normalized": false,
      "special": true
    },
    {
      "id": 30011,
      "content": "<extra_id_10>",
      "single_word": false,
      "lstrip": false,
      "rstrip": false,
      "normalized": false,
      "special": true
    },
    {
      "id": 30012,
      "content": "<extra_id_11>",
      "single_word": false,
      "lstrip": false,
      "rstrip": false,
      "normalized": false,
      "special": true
    },
    {
      "id": 30013,
      "content": "<extra_id_12>",
      "single_word": false,
      "lstrip": false,
      "rstrip": false,
      "normalized": false,
      "special": true
    },
    {
      "id": 30014,
      "content": "<extra_id_13>",
      "single_word": false,
      "lstrip": false,
      "rstrip": false,
      "normalized": false,
      "special": true
    },
    {
      "id": 30015,
      "content": "<extra_id_14>",
      "single_word": false,
      "lstrip": false,
      "rstrip": false,
      "normalized": false,
      "special": true
    },
    {
      "id": 30016,
      "content": "<extra_id_15>",
      "single_word": false,
      "lstrip": false,
      "rstrip": false,
      "normalized": false,
      "special": true
    },
    {
      "id": 30017,
      "content": "<extra_id_16>",
      "single_word": false,
      "lstrip": false,
      "rstrip": false,
      "normalized": false,
      "special": true
    },
    {
      "id": 30018,
      "content": "<extra_id_17>",
      "single_word": false,
      "lstrip": false,
      "rstrip": false,
      "normalized": false,
      "special": true
    },
    {
      "id": 30019,
      "content": "<extra_id_18>",
      "single_word": false,
      "lstrip": false,
      "rstrip": false,
      "normalized": false,
      "special": true
    },
    {
      "id": 30020,
      "content": "<extra_id_19>",
      "single_word": false,
      "lstrip": false,
      "rstrip": false,
      "normalized": false,
      "special": true
    },
    {
      "id": 30021,
      "content": "<extra_id_20>",
      "single_word": false,
      "lstrip": false,
      "rstrip": false,
      "normalized": false,
      "special": true
    },
    {
      "id": 30022,
      "content": "<extra_id_21>",
      "single_word": false,
      "lstrip": false,
      "rstrip": false,
      "normalized": false,
      "special": true
    },
    {
      "id": 30023,
      "content": "<extra_id_22>",
      "single_word": false,
      "lstrip": false,
      "rstrip": false,
      "normalized": false,
      "special": true
    },
    {
      "id": 30024,
      "content": "<extra_id_23>",
      "single_word": false,
      "lstrip": false,
      "rstrip": false,
      "normalized": false,
      "special": true
    },
    {
      "id": 30025,
      "content": "<extra_id_24>",
      "single_word": false,
      "lstrip": false,
      "rstrip": false,
      "normalized": false,
      "special": true
    },
    {
      "id": 30026,
      "content": "<extra_id_25>",
      "single_word": false,
      "lstrip": false,
      "rstrip": false,
      "normalized": false,
      "special": true
    },
    {
      "id": 30027,
      "content": "<extra_id_26>",
      "single_word": false,
      "lstrip": false,
      "rstrip": false,
      "normalized": false,
      "special": true
    },
    {
      "id": 30028,
      "content": "<extra_id_27>",
      "single_word": false,
      "lstrip": false,
      "rstrip": false,
      "normalized": false,
      "special": true
    },
    {
      "id": 30029,
      "content": "<extra_id_28>",
      "single_word": false,
      "lstrip": false,
      "rstrip": false,
      "normalized": false,
      "special": true
    },
    {
      "id": 30030,
      "content": "<extra_id_29>",
      "single_word": false,
      "lstrip": false,
      "rstrip": false,
      "normalized": false,
      "special": true
    },
    {
      "id": 30031,
      "content": "<extra_id_30>",
      "single_word": false,
      "lstrip": false,
      "rstrip": false,
      "normalized": false,
      "special": true
    },
    {
      "id": 30032,
      "content": "<extra_id_31>",
      "single_word": false,
      "lstrip": false,
      "rstrip": false,
      "normalized": false,
      "special": true
    },
    {
      "id": 30033,
      "content": "<extra_id_32>",
      "single_word": false,
      "lstrip": false,
      "rstrip": false,
      "normalized": false,
      "special": true
    },
    {
      "id": 30034,
      "content": "<extra_id_33>",
      "single_word": false,
      "lstrip": false,
      "rstrip": false,
      "normalized": false,
      "special": true
    },
    {
      "id": 30035,
      "content": "<extra_id_34>",
      "single_word": false,
      "lstrip": false,
      "rstrip": false,
      "normalized": false,
      "special": true
    },
    {
      "id": 30036,
      "content": "<extra_id_35>",
      "single_word": false,
      "lstrip": false,
      "rstrip": false,
      "normalized": false,
      "special": true
    },
    {
      "id": 30037,
      "content": "<extra_id_36>",
      "single_word": false,
      "lstrip": false,
      "rstrip": false,
      "normalized": false,
      "special": true
    },
    {
      "id": 30038,
      "content": "<extra_id_37>",
      "single_word": false,
      "lstrip": false,
      "rstrip": false,
      "normalized": false,
      "special": true
    },
    {
      "id": 30039,
      "content": "<extra_id_38>",
      "single_word": false,
      "lstrip": false,
      "rstrip": false,
      "normalized": false,
      "special": true
    },
    {
      "id": 30040,
      "content": "<extra_id_39>",
      "single_word": false,
      "lstrip": false,
      "rstrip": false,
      "normalized": false,
      "special": true
    },
    {
      "id": 30041,
      "content": "<extra_id_40>",
      "single_word": false,
      "lstrip": false,
      "rstrip": false,
      "normalized": false,
      "special": true
    },
    {
      "id": 30042,
      "content": "<extra_id_41>",
      "single_word": false,
      "lstrip": false,
      "rstrip": false,
      "normalized": false,
      "special": true
    },
    {
      "id": 30043,
      "content": "<extra_id_42>",
      "single_word": false,
      "lstrip": false,
      "rstrip": false,
      "normalized": false,
      "special": true
    },
    {
      "id": 30044,
      "content": "<extra_id_43>",
      "single_word": false,
      "lstrip": false,
      "rstrip": false,
      "normalized": false,
      "special": true
    },
    {
      "id": 30045,
      "content": "<extra_id_44>",
      "single_word": false,
      "lstrip": false,
      "rstrip": false,
      "normalized": false,
      "special": true
    },
    {
      "id": 30046,
      "content": "<extra_id_45>",
      "single_word": false,
      "lstrip": false,
      "rstrip": false,
      "normalized": false,
      "special": true
    },
    {
      "id": 30047,
      "content": "<extra_id_46>",
      "single_word": false,
      "lstrip": false,
      "rstrip": false,
      "normalized": false,
      "special": true
    },
    {
      "id": 30048,
      "content": "<extra_id_47>",
      "single_word": false,
      "lstrip": false,
      "rstrip": false,
      "normalized": false,
      "special": true
    },
    {
      "id": 30049,
      "content": "<extra_id_48>",
      "single_word": false,
      "lstrip": false,
      "rstrip": false,
      "normalized": false,
      "special": true
    },
    {
      "id": 30050,
      "content": "<extra_id_49>",
      "single_word": false,
      "lstrip": false,
      "rstrip": false,
      "normalized": false,
      "special": true
    },
    {
      "id": 30051,
      "content": "<extra_id_50>",
      "single_word": false,
      "lstrip": false,
      "rstrip": false,
      "normalized": false,
      "special": true
    },
    {
      "id": 30052,
      "content": "<extra_id_51>",
      "single_word": false,
      "lstrip": false,
      "rstrip": false,
      "normalized": false,
      "special": true
    },
    {
      "id": 30053,
      "content": "<extra_id_52>",
      "single_word": false,
      "lstrip": false,
      "rstrip": false,
      "normalized": false,
      "special": true
    },
    {
      "id": 30054,
      "content": "<extra_id_53>",
      "single_word": false,
      "lstrip": false,
      "rstrip": false,
      "normalized": false,
      "special": true
    },
    {
      "id": 30055,
      "content": "<extra_id_54>",
      "single_word": false,
      "lstrip": false,
      "rstrip": false,
      "normalized": false,
      "special": true
    },
    {
      "id": 30056,
      "content": "<extra_id_55>",
      "single_word": false,
      "lstrip": false,
      "rstrip": false,
      "normalized": false,
      "special": true
    },
    {
      "id": 30057,
      "content": "<extra_id_56>",
      "single_word": false,
      "lstrip": false,
      "rstrip": false,
      "normalized": false,
      "special": true
    },
    {
      "id": 30058,
      "content": "<extra_id_57>",
      "single_word": false,
      "lstrip": false,
      "rstrip": false,
      "normalized": false,
      "special": true
    },
    {
      "id": 30059,
      "content": "<extra_id_58>",
      "single_word": false,
      "lstrip": false,
      "rstrip": false,
      "normalized": false,
      "special": true
    },
    {
      "id": 30060,
      "content": "<extra_id_59>",
      "single_word": false,
      "lstrip": false,
      "rstrip": false,
      "normalized": false,
      "special": true
    },
    {
      "id": 30061,
      "content": "<extra_id_60>",
      "single_word": false,
      "lstrip": false,
      "rstrip": false,
      "normalized": false,
      "special": true
    },
    {
      "id": 30062,
      "content": "<extra_id_61>",
      "single_word": false,
      "lstrip": false,
      "rstrip": false,
      "normalized": false,
      "special": true
    },
    {
      "id": 30063,
      "content": "<extra_id_62>",
      "single_word": false,
      "lstrip": false,
      "rstrip": false,
      "normalized": false,
      "special": true
    },
    {
      "id": 30064,
      "content": "<extra_id_63>",
      "single_word": false,
      "lstrip": false,
      "rstrip": false,
      "normalized": false,
      "special": true
    },
    {
      "id": 30065,
      "content": "<extra_id_64>",
      "single_word": false,
      "lstrip": false,
      "rstrip": false,
      "normalized": false,
      "special": true
    },
    {
      "id": 30066,
      "content": "<extra_id_65>",
      "single_word": false,
      "lstrip": false,
      "rstrip": false,
      "normalized": false,
      "special": true
    },
    {
      "id": 30067,
      "content": "<extra_id_66>",
      "single_word": false,
      "lstrip": false,
      "rstrip": false,
      "normalized": false,
      "special": true
    },
    {
      "id": 30068,
      "content": "<extra_id_67>",
      "single_word": false,
      "lstrip": false,
      "rstrip": false,
      "normalized": false,
      "special": true
    },
    {
      "id": 30069,
      "content": "<extra_id_68>",
      "single_word": false,
      "lstrip": false,
      "rstrip": false,
      "normalized": false,
      "special": true
    },
    {
      "id": 30070,
      "content": "<extra_id_69>",
      "single_word": false,
      "lstrip": false,
      "rstrip": false,
      "normalized": false,
      "special": true
    },
    {
      "id": 30071,
      "content": "<extra_id_70>",
      "single_word": false,
      "lstrip": false,
      "rstrip": false,
      "normalized": false,
      "special": true
    },
    {
      "id": 30072,
      "content": "<extra_id_71>",
      "single_word": false,
      "lstrip": false,
      "rstrip": false,
      "normalized": false,
      "special": true
    },
    {
      "id": 30073,
      "content": "<extra_id_72>",
      "single_word": false,
      "lstrip": false,
      "rstrip": false,
      "normalized": false,
      "special": true
    },
    {
      "id": 30074,
      "content": "<extra_id_73>",
      "single_word": false,
      "lstrip": false,
      "rstrip": false,
      "normalized": false,
      "special": true
    },
    {
      "id": 30075,
      "content": "<extra_id_74>",
      "single_word": false,
      "lstrip": false,
      "rstrip": false,
      "normalized": false,
      "special": true
    },
    {
      "id": 30076,
      "content": "<extra_id_75>",
      "single_word": false,
      "lstrip": false,
      "rstrip": false,
      "normalized": false,
      "special": true
    },
    {
      "id": 30077,
      "content": "<extra_id_76>",
      "single_word": false,
      "lstrip": false,
      "rstrip": false,
      "normalized": false,
      "special": true
    },
    {
      "id": 30078,
      "content": "<extra_id_77>",
      "single_word": false,
      "lstrip": false,
      "rstrip": false,
      "normalized": false,
      "special": true
    },
    {
      "id": 30079,
      "content": "<extra_id_78>",
      "single_word": false,
      "lstrip": false,
      "rstrip": false,
      "normalized": false,
      "special": true
    },
    {
      "id": 30080,
      "content": "<extra_id_79>",
      "single_word": false,
      "lstrip": false,
      "rstrip": false,
      "normalized": false,
      "special": true
    },
    {
      "id": 30081,
      "content": "<extra_id_80>",
      "single_word": false,
      "lstrip": false,
      "rstrip": false,
      "normalized": false,
      "special": true
    },
    {
      "id": 30082,
      "content": "<extra_id_81>",
      "single_word": false,
      "lstrip": false,
      "rstrip": false,
      "normalized": false,
      "special": true
    },
    {
      "id": 30083,
      "content": "<extra_id_82>",
      "single_word": false,
      "lstrip": false,
      "rstrip": false,
      "normalized": false,
      "special": true
    },
    {
      "id": 30084,
      "content": "<extra_id_83>",
      "single_word": false,
      "lstrip": false,
      "rstrip": false,
      "normalized": false,
      "special": true
    },
    {
      "id": 30085,
      "content": "<extra_id_84>",
      "single_word": false,
      "lstrip": false,
      "rstrip": false,
      "normalized": false,
      "special": true
    },
    {
      "id": 30086,
      "content": "<extra_id_85>",
      "single_word": false,
      "lstrip": false,
      "rstrip": false,
      "normalized": false,
      "special": true
    },
    {
      "id": 30087,
      "content": "<extra_id_86>",
      "single_word": false,
      "lstrip": false,
      "rstrip": false,
      "normalized": false,
      "special": true
    },
    {
      "id": 30088,
      "content": "<extra_id_87>",
      "single_word": false,
      "lstrip": false,
      "rstrip": false,
      "normalized": false,
      "special": true
    },
    {
      "id": 30089,
      "content": "<extra_id_88>",
      "single_word": false,
      "lstrip": false,
      "rstrip": false,
      "normalized": false,
      "special": true
    },
    {
      "id": 30090,
      "content": "<extra_id_89>",
      "single_word": false,
      "lstrip": false,
      "rstrip": false,
      "normalized": false,
      "special": true
    },
    {
      "id": 30091,
      "content": "<extra_id_90>",
      "single_word": false,
      "lstrip": false,
      "rstrip": false,
      "normalized": false,
      "special": true
    },
    {
      "id": 30092,
      "content": "<extra_id_91>",
      "single_word": false,
      "lstrip": false,
      "rstrip": false,
      "normalized": false,
      "special": true
    },
    {
      "id": 30093,
      "content": "<extra_id_92>",
      "single_word": false,
      "lstrip": false,
      "rstrip": false,
      "normalized": false,
      "special": true
    },
    {
      "id": 30094,
      "content": "<extra_id_93>",
      "single_word": false,
      "lstrip": false,
      "rstrip": false,
      "normalized": false,
      "special": true
    },
    {
      "id": 30095,
      "content": "<extra_id_94>",
      "single_word": false,
      "lstrip": false,
      "rstrip": false,
      "normalized": false,
      "special": true
    },
    {
      "id": 30096,
      "content": "<extra_id_95>",
      "single_word": false,
      "lstrip": false,
      "rstrip": false,
      "normalized": false,
      "special": true
    },
    {
      "id": 30097,
      "content": "<extra_id_96>",
      "single_word": false,
      "lstrip": false,
      "rstrip": false,
      "normalized": false,
      "special": true
    },
    {
      "id": 30098,
      "content": "<extra_id_97>",
      "single_word": false,
      "lstrip": false,
      "rstrip": false,
      "normalized": false,
      "special": true
    },
    {
      "id": 30099,
      "content": "<extra_id_98>",
      "single_word": false,
      "lstrip": false,
      "rstrip": false,
      "normalized": false,
      "special": true
    },
    {
      "id": 30100,
      "content": "<extra_id_99>",
      "single_word": false,
      "lstrip": false,
      "rstrip": false,
      "normalized": false,
      "special": true
    }
  ],
  "normalizer": {
    "type": "BertNormalizer",
    "clean_text": true,
    "handle_chinese_chars": false,
    "strip_accents": false,
    "lowercase": false
  },
  "pre_tokenizer": {
    "type": "Metaspace",
    "replacement": "▁",
    "prepend_scheme": "always",
    "split": true
  },
  "post_processor": {
    "type": "BertProcessing",
    "sep": [
      "[SEP]",
      1
    ],
    "cls": [
      "[CLS]",
      0
    ]
  },
  "decoder": {
    "type": "Metaspace",
    "replacement": "▁",
    "prepend_scheme": "always",
    "split": true
  },
  "model": {
    "type": "Unigram",
    "unk_id": 2,
    "vocab": [
      [
        "[CLS]",
        0.0
      ],
      [
        "[SEP]",
        0.0
      ],
      [
        "[UNK]",
        0.0
      ],
      [
        "[PAD]",
        0.0
      ],
      [
        "[MASK]",
        0.0
      ],
      [
        "▁",
        -3.50273803337916
      ],
      [
        "，",
        -3.6641109898008897
      ],
      [
        "の",
        -3.704505568449005
      ],
      [
        "。",
        -3.8211183997382534
      ],
      [
        "は",
        -4.444173011741336
      ],
      [
        "と",
        -4.523184774465255
      ],
      [
        "が",
        -4.679305069449875
      ],
      [
        "を",
        -4.703751536133611
      ],
      [
        "に",
        -4.771416070672277
      ],
      [
        "で",
        -5.051753555396036
      ],
      [
        "（",
        -5.201979183689698
      ],
      [
        "・",
        -5.5155839193220455
      ],
      [
        "や",
        -5.521401260413771
      ],
      [
        "、",
        -5.696328989558889
      ],
      [
        "による",
        -5.84052827612083
      ],
      [
        "は，",
        -5.897199514451019
      ],
      [
        "）",
        -5.92067967472774
      ],
      [
        "から",
        -5.947603052324036
      ],
      [
        "および",
        -5.983291194851603
      ],
      [
        "では",
        -6.064162896247348
      ],
      [
        "性",
        -6.12092334696332
      ],
      [
        "も",
        -6.1460212386528585
      ],
      [
        "における",
        -6.193339735282468
      ],
      [
        "した。",
        -6.222392743645765
      ],
      [
        "であった。",
        -6.252129300590299
      ],
      [
        "し，",
        -6.298153622759244
      ],
      [
        "１",
        -6.384702957612442
      ],
      [
        "する",
        -6.425085937418363
      ],
      [
        "により",
        -6.475011104598398
      ],
      [
        "した",
        -6.487350560072409
      ],
      [
        "である。",
        -6.529024805590884
      ],
      [
        "．",
        -6.550690254792839
      ],
      [
        "２",
        -6.555819318535255
      ],
      [
        "に対する",
        -6.557702952483604
      ],
      [
        "及び",
        -6.587737146981468
      ],
      [
        "治療",
        -6.648419139441854
      ],
      [
        "として",
        -6.649216600366268
      ],
      [
        "‐",
        -6.659108573928142
      ],
      [
        "など",
        -6.668676538290011
      ],
      [
        "より",
        -6.708904583412387
      ],
      [
        "が，",
        -6.730677172005516
      ],
      [
        "３",
        -6.734367660316199
      ],
      [
        "には",
        -6.763809246052439
      ],
      [
        "▁♪・",
        -6.772328551444728
      ],
      [
        "患者",
        -6.797399344037821
      ],
      [
        "し",
        -6.819013554558152
      ],
      [
        "型",
        -6.827342544410914
      ],
      [
        "で，",
        -6.838840630694195
      ],
      [
        "への",
        -6.895879975037227
      ],
      [
        "について",
        -6.911286043820539
      ],
      [
        "な",
        -6.971334774996663
      ],
      [
        "である",
        -6.976893924659787
      ],
      [
        "では，",
        -6.991656698931116
      ],
      [
        "▁１）",
        -6.992978585086512
      ],
      [
        "細胞",
        -7.015296153848546
      ],
      [
        "して",
        -7.025882160264569
      ],
      [
        "であり，",
        -7.039792316278785
      ],
      [
        "４",
        -7.055642553937469
      ],
      [
        "「",
        -7.068490249668667
      ],
      [
        "／",
        -7.094848075398721
      ],
      [
        "法",
        -7.117780618907272
      ],
      [
        "，２）",
        -7.1352198753575795
      ],
      [
        "手術",
        -7.136186410890797
      ],
      [
        "後",
        -7.1429140587792155
      ],
      [
        "Ａ",
        -7.1608717921454215
      ],
      [
        "症例",
        -7.174045167929087
      ],
      [
        "：",
        -7.176893441225431
      ],
      [
        "５",
        -7.180445026085348
      ],
      [
        "▁また，",
        -7.182044729727272
      ],
      [
        "的",
        -7.190473878196071
      ],
      [
        "において",
        -7.195306468049765
      ],
      [
        "Ｉ",
        -7.199563404112396
      ],
      [
        "，３）",
        -7.207430960664917
      ],
      [
        "検査",
        -7.211451033673185
      ],
      [
        "」",
        -7.213458182846791
      ],
      [
        "などの",
        -7.221066982278446
      ],
      [
        "を認めた",
        -7.222843083624889
      ],
      [
        "患者の",
        -7.236116260048062
      ],
      [
        "中",
        -7.237689607249267
      ],
      [
        "診断",
        -7.256008724107733
      ],
      [
        "化",
        -7.274122647430333
      ],
      [
        "評価",
        -7.30610425593988
      ],
      [
        "６",
        -7.323433260322902
      ],
      [
        "障害",
        -7.325186163065387
      ],
      [
        "か",
        -7.328878393522221
      ],
      [
        "その",
        -7.332946503006458
      ],
      [
        "疾患",
        -7.334719799511246
      ],
      [
        "内",
        -7.358244041084701
      ],
      [
        "Ｂ",
        -7.377491166331881
      ],
      [
        "研究",
        -7.3900653938025
      ],
      [
        "によって",
        -7.433519258386603
      ],
      [
        "を行った。",
        -7.435116132707476
      ],
      [
        "），",
        -7.437877956557706
      ],
      [
        "Ｃ",
        -7.438429306240557
      ],
      [
        "Ｓ",
        -7.440322236790156
      ],
      [
        "－",
        -7.443052695039805
      ],
      [
        "癌",
        -7.445199305712897
      ],
      [
        "での",
        -7.447655310518604
      ],
      [
        "こと",
        -7.448512635092984
      ],
      [
        "Ｐ",
        -7.470757638380615
      ],
      [
        "症",
        -7.474889175840305
      ],
      [
        "８",
        -7.4903622631256574
      ],
      [
        "，４）",
        -7.500970892245707
      ],
      [
        "腫よう",
        -7.507031621716514
      ],
      [
        "について述べた",
        -7.507875970638875
      ],
      [
        "▁また",
        -7.513407274844965
      ],
      [
        "機能",
        -7.515664158463432
      ],
      [
        "症状",
        -7.525718956063003
      ],
      [
        "にて",
        -7.527544474719948
      ],
      [
        "感染",
        -7.527901096754263
      ],
      [
        "Ｔ",
        -7.5319330060194
      ],
      [
        "７",
        -7.541492968212499
      ],
      [
        "された",
        -7.54182664549152
      ],
      [
        "を用いた",
        -7.5464104875256
      ],
      [
        "非",
        -7.546429766421372
      ],
      [
        "として，",
        -7.548099842455679
      ],
      [
        "運動",
        -7.550210624529852
      ],
      [
        "▁この",
        -7.555297447205197
      ],
      [
        "について，",
        -7.556058662494477
      ],
      [
        "等",
        -7.566891029847497
      ],
      [
        "例",
        -7.571668904887334
      ],
      [
        "異常",
        -7.573608288876533
      ],
      [
        "腫瘍",
        -7.574979825006734
      ],
      [
        "を示した。",
        -7.592337790779347
      ],
      [
        "投与",
        -7.596188402140845
      ],
      [
        "る",
        -7.597745153519625
      ],
      [
        "に対して",
        -7.615431861610297
      ],
      [
        "に関する",
        -7.616411743263633
      ],
      [
        "系",
        -7.61886508598819
      ],
      [
        "する。",
        -7.629599186717769
      ],
      [
        "群",
        -7.629844180092034
      ],
      [
        "前",
        -7.631667115307938
      ],
      [
        "測定",
        -7.63755448028494
      ],
      [
        "者",
        -7.639114366710565
      ],
      [
        "ため，",
        -7.642052772226648
      ],
      [
        "ｓ",
        -7.64297647244222
      ],
      [
        "量",
        -7.645410549524989
      ],
      [
        "ス",
        -7.655143777354317
      ],
      [
        "変化",
        -7.6586026615323295
      ],
      [
        "部",
        -7.66333611578405
      ],
      [
        "て",
        -7.66369002949852
      ],
      [
        "病変",
        -7.663769513883933
      ],
      [
        "骨",
        -7.667246515417187
      ],
      [
        "効果",
        -7.6839747675604
      ],
      [
        "９",
        -7.689037934416328
      ],
      [
        "組織",
        -7.692375851655084
      ],
      [
        "ｉｎ",
        -7.693878473757424
      ],
      [
        "療法",
        -7.696283737200488
      ],
      [
        "方法",
        -7.717216359697961
      ],
      [
        "た",
        -7.718057593828471
      ],
      [
        "１０",
        -7.721333113215449
      ],
      [
        "値",
        -7.722249140766031
      ],
      [
        "上",
        -7.724178809793804
      ],
      [
        "している",
        -7.725459935098637
      ],
      [
        "Ｄ",
        -7.73042284063701
      ],
      [
        "）の",
        -7.731766571440437
      ],
      [
        "度",
        -7.732023254029139
      ],
      [
        "▁その結果，",
        -7.736742139606585
      ],
      [
        "または",
        -7.744215371083062
      ],
      [
        "管理",
        -7.751363095910728
      ],
      [
        "医療",
        -7.763566446932368
      ],
      [
        "筋",
        -7.772217403637789
      ],
      [
        "▁２",
        -7.775942432320699
      ],
      [
        "反応",
        -7.782455451908268
      ],
      [
        "という",
        -7.784435412822061
      ],
      [
        "術後",
        -7.784842228816858
      ],
      [
        "使用",
        -7.787805150809591
      ],
      [
        "まで",
        -7.795216560048656
      ],
      [
        "遺伝子",
        -7.798992169522723
      ],
      [
        "Ｇ",
        -7.800006537015067
      ],
      [
        "を用いて",
        -7.8010609297306015
      ],
      [
        "後の",
        -7.802474626601887
      ],
      [
        "女性",
        -7.80560963892135
      ],
      [
        "Ｍ",
        -7.820027632819738
      ],
      [
        "外",
        -7.820100570498383
      ],
      [
        "発現",
        -7.83552197803035
      ],
      [
        "について解説した",
        -7.839018277309732
      ],
      [
        "状態",
        -7.843081903052633
      ],
      [
        "システム",
        -7.8487111648786225
      ],
      [
        "的な",
        -7.85124797128902
      ],
      [
        "神経",
        -7.852686552868105
      ],
      [
        "を検討した。",
        -7.853731476337227
      ],
      [
        "される",
        -7.854520313078419
      ],
      [
        "Ｆ",
        -7.857083017703026
      ],
      [
        "い",
        -7.863688641310853
      ],
      [
        "解析",
        -7.865829036183344
      ],
      [
        "関連",
        -7.872422077789899
      ],
      [
        "下",
        -7.8756431873459185
      ],
      [
        "を行い，",
        -7.87717007185532
      ],
      [
        "Ｌ",
        -7.878601355907481
      ],
      [
        "た。",
        -7.88354569815394
      ],
      [
        "形成",
        -7.884798233247187
      ],
      [
        "ｐ",
        -7.886185758224666
      ],
      [
        "率",
        -7.888997043344354
      ],
      [
        "点",
        -7.889110916611475
      ],
      [
        "時",
        -7.896423628418486
      ],
      [
        "Ｒ",
        -7.8965185645203295
      ],
      [
        "作用",
        -7.898271927172624
      ],
      [
        "時の",
        -7.901838082536678
      ],
      [
        "でも",
        -7.903423249019204
      ],
      [
        "を認め，",
        -7.9160325801875455
      ],
      [
        "時間",
        -7.917544805916265
      ],
      [
        "後に",
        -7.920237149516781
      ],
      [
        "活性",
        -7.921567858964199
      ],
      [
        "薬",
        -7.921830546248936
      ],
      [
        "，５）",
        -7.922601499339963
      ],
      [
        "Ｈ",
        -7.931204643276697
      ],
      [
        "支援",
        -7.9364291411462045
      ],
      [
        "試験",
        -7.936977795309184
      ],
      [
        "切除",
        -7.937738086475303
      ],
      [
        "高",
        -7.938472985061232
      ],
      [
        "合併症",
        -7.941176204458069
      ],
      [
        "にも",
        -7.944875986490349
      ],
      [
        "数",
        -7.945121466900353
      ],
      [
        "され，",
        -7.945233542033867
      ],
      [
        "ケア",
        -7.948304019492708
      ],
      [
        "因子",
        -7.949768553879897
      ],
      [
        "中の",
        -7.953685000825397
      ],
      [
        "低下",
        -7.954049228589955
      ],
      [
        "抗",
        -7.960748723874717
      ],
      [
        "血管",
        -7.961831026559487
      ],
      [
        "分析",
        -7.964469757715859
      ],
      [
        "Ｅ",
        -7.964486663084619
      ],
      [
        "大",
        -7.964506082386778
      ],
      [
        "Ｖ",
        -7.966622837088698
      ],
      [
        "刺激",
        -7.973368845937362
      ],
      [
        "発症",
        -7.97434384944698
      ],
      [
        "分類",
        -7.980200112639659
      ],
      [
        "改善",
        -7.98146670918425
      ],
      [
        "間",
        -7.991993988599846
      ],
      [
        "病態",
        -7.996857603281612
      ],
      [
        "ヒト",
        -7.998342751968982
      ],
      [
        "脳",
        -7.998845351083912
      ],
      [
        "活動",
        -8.000717181170444
      ],
      [
        "Ｋ",
        -8.001601371693909
      ],
      [
        "この",
        -8.001819326341932
      ],
      [
        "がある。",
        -8.004924698935872
      ],
      [
        "モデル",
        -8.007410619012798
      ],
      [
        "男性",
        -8.009400354194023
      ],
      [
        "へ",
        -8.012240570438157
      ],
      [
        "剤",
        -8.018227281609274
      ],
      [
        "環境",
        -8.02061574465908
      ],
      [
        "体",
        -8.024606937480693
      ],
      [
        "移植",
        -8.02564532915892
      ],
      [
        "調査",
        -8.031684646174572
      ],
      [
        "肝",
        -8.033475542443215
      ],
      [
        "教育",
        -8.034767389132057
      ],
      [
        "検討",
        -8.036534157634007
      ],
      [
        "肺",
        -8.037055742223352
      ],
      [
        "所見",
        -8.037737643296014
      ],
      [
        "人",
        -8.040386240185864
      ],
      [
        "各",
        -8.040950444928267
      ],
      [
        "用",
        -8.045273464498692
      ],
      [
        "時に",
        -8.046325631365496
      ],
      [
        "できる",
        -8.047740288585615
      ],
      [
        "抗体",
        -8.048231659683902
      ],
      [
        "水",
        -8.04851515176633
      ],
      [
        "している。",
        -8.048859758576715
      ],
      [
        "＋",
        -8.051125946323676
      ],
      [
        "発生",
        -8.055981609983395
      ],
      [
        "左",
        -8.056533396513425
      ],
      [
        "再発",
        -8.057894985843868
      ],
      [
        "予防",
        -8.059007634836982
      ],
      [
        "からの",
        -8.06372830610291
      ],
      [
        "ため",
        -8.07073510045438
      ],
      [
        "結果",
        -8.073310078301235
      ],
      [
        "右",
        -8.074483931265412
      ],
      [
        "を伴う",
        -8.07631537761484
      ],
      [
        "もの",
        -8.077270183698536
      ],
      [
        "病院",
        -8.080906510340874
      ],
      [
        "感染症",
        -8.085656470299655
      ],
      [
        "があり，",
        -8.085860392299352
      ],
      [
        "骨折",
        -8.088059770542163
      ],
      [
        "症候群",
        -8.092073801068825
      ],
      [
        "していた。",
        -8.092213900939665
      ],
      [
        "本",
        -8.092828258012041
      ],
      [
        "リ",
        -8.09468147452599
      ],
      [
        "行動",
        -8.095803736446358
      ],
      [
        "すること",
        -8.098593638890916
      ],
      [
        "２０",
        -8.099860465647643
      ],
      [
        "期",
        -8.103164335280564
      ],
      [
        "力",
        -8.108743000052954
      ],
      [
        "画像",
        -8.120232195539312
      ],
      [
        "ア",
        -8.122005227030064
      ],
      [
        "的に",
        -8.124383762327465
      ],
      [
        "あるいは",
        -8.125093154855259
      ],
      [
        "において，",
        -8.126196826580081
      ],
      [
        "観察",
        -8.128015319550236
      ],
      [
        "以上",
        -8.131448438334285
      ],
      [
        "り",
        -8.131816381828415
      ],
      [
        "病",
        -8.133497324268857
      ],
      [
        "薬剤",
        -8.134890493126415
      ],
      [
        "について概説した",
        -8.139987635933219
      ],
      [
        "糖尿病",
        -8.141792048828727
      ],
      [
        "皮膚",
        -8.144071243138852
      ],
      [
        "損傷",
        -8.14525077121312
      ],
      [
        "により，",
        -8.145455792172587
      ],
      [
        "～",
        -8.147011065687815
      ],
      [
        "状況",
        -8.148909864097178
      ],
      [
        "血清",
        -8.150984373644345
      ],
      [
        "濃度",
        -8.153654013060388
      ],
      [
        "陽性",
        -8.155970554357445
      ],
      [
        "検討した。",
        -8.157244228257067
      ],
      [
        "Ｎ",
        -8.157782139545283
      ],
      [
        "）と",
        -8.158546404151378
      ],
      [
        "▁症例は",
        -8.160255017060843
      ],
      [
        "ー",
        -8.161924381250683
      ],
      [
        "を有する",
        -8.165690653175645
      ],
      [
        "看護",
        -8.167243392170896
      ],
      [
        "出血",
        -8.168908291886106
      ],
      [
        "であった",
        -8.168924378247324
      ],
      [
        "し、",
        -8.168975006289811
      ],
      [
        "食",
        -8.170335038120124
      ],
      [
        "ｃ",
        -8.172205757341864
      ],
      [
        "ｍ",
        -8.17269843950914
      ],
      [
        "施設",
        -8.183593574346975
      ],
      [
        "対応",
        -8.185504650070744
      ],
      [
        "ら",
        -8.197106200201185
      ],
      [
        "問題",
        -8.19755425638656
      ],
      [
        "蛋白質",
        -8.200554798244076
      ],
      [
        "と考えられた。",
        -8.201158100669714
      ],
      [
        "臨床",
        -8.204424631559153
      ],
      [
        "構造",
        -8.208651340950086
      ],
      [
        "がん",
        -8.211294548626409
      ],
      [
        "指導",
        -8.212770381025175
      ],
      [
        "された。",
        -8.213414974164865
      ],
      [
        "処理",
        -8.219254492859248
      ],
      [
        "▁しかし，",
        -8.220214557741588
      ],
      [
        "無",
        -8.221406273994818
      ],
      [
        "転移",
        -8.223096038416733
      ],
      [
        "ＣＴ",
        -8.224314070959828
      ],
      [
        "術",
        -8.225762075683473
      ],
      [
        "情報",
        -8.22957444356645
      ],
      [
        "１２",
        -8.23495528386354
      ],
      [
        "領域",
        -8.238351225160116
      ],
      [
        "像",
        -8.238569418691574
      ],
      [
        "は、",
        -8.238770732003212
      ],
      [
        "増加",
        -8.241456521971447
      ],
      [
        "を含む",
        -8.242522173995528
      ],
      [
        "低",
        -8.2438182025978
      ],
      [
        "抗原",
        -8.24442344735724
      ],
      [
        "ｂ",
        -8.251243328094613
      ],
      [
        "Ｏ",
        -8.258488528905364
      ],
      [
        "全",
        -8.264827989542896
      ],
      [
        "く",
        -8.26791508340204
      ],
      [
        "ｇ",
        -8.271524023878683
      ],
      [
        "について検討した",
        -8.272226510887707
      ],
      [
        "ウイルス",
        -8.272389054152473
      ],
      [
        "ラ",
        -8.27284964034954
      ],
      [
        "ド",
        -8.273600392565019
      ],
      [
        "技術",
        -8.274785282094431
      ],
      [
        "受容体",
        -8.275195384400238
      ],
      [
        "化学療法",
        -8.275724998476592
      ],
      [
        "には，",
        -8.27777100262124
      ],
      [
        "ト",
        -8.27890034352683
      ],
      [
        "報告",
        -8.28014111168262
      ],
      [
        "以上の",
        -8.281609227435878
      ],
      [
        "を施行した",
        -8.282098033185502
      ],
      [
        "様",
        -8.287718928195433
      ],
      [
        "部位",
        -8.28850634154643
      ],
      [
        "生活",
        -8.289454339814936
      ],
      [
        "ａ",
        -8.293469989071728
      ],
      [
        "約",
        -8.297064748578174
      ],
      [
        "抑制",
        -8.29977536671953
      ],
      [
        "関係",
        -8.302450881592172
      ],
      [
        "眼",
        -8.303376399934624
      ],
      [
        "後，",
        -8.305785862516263
      ],
      [
        "のみ",
        -8.307350892145015
      ],
      [
        "を示す",
        -8.30900061443196
      ],
      [
        "関節",
        -8.311361236439287
      ],
      [
        "側",
        -8.31223069605072
      ],
      [
        "（Ｉ）",
        -8.31449059070735
      ],
      [
        "固定",
        -8.314539241158704
      ],
      [
        "と診断した",
        -8.315218121474771
      ],
      [
        "動脈",
        -8.316282689755743
      ],
      [
        "心",
        -8.316331083057333
      ],
      [
        "▁・",
        -8.316854703190506
      ],
      [
        "ジ",
        -8.317894174886504
      ],
      [
        "データ",
        -8.31801114223213
      ],
      [
        "リスク",
        -8.318210559843315
      ],
      [
        "免疫",
        -8.323807772467879
      ],
      [
        "日",
        -8.324004447134232
      ],
      [
        "とその",
        -8.327821279629267
      ],
      [
        "項目",
        -8.33251458878973
      ],
      [
        "年齢",
        -8.333343253040828
      ],
      [
        "と考えられる。",
        -8.337044623909058
      ],
      [
        "要因",
        -8.338390695206586
      ],
      [
        "対策",
        -8.338870788002094
      ],
      [
        "平均",
        -8.348944101043575
      ],
      [
        "正常",
        -8.350064418772643
      ],
      [
        "の変化",
        -8.350662644097753
      ],
      [
        "となる",
        -8.350702864023756
      ],
      [
        "１５",
        -8.353471532741978
      ],
      [
        "事例",
        -8.354845381092167
      ],
      [
        "腎",
        -8.355953979468822
      ],
      [
        "マウス",
        -8.356666901954663
      ],
      [
        "診療",
        -8.358121765076813
      ],
      [
        "装置",
        -8.358879940065854
      ],
      [
        "実施",
        -8.35932586454152
      ],
      [
        "ｔ",
        -8.361355625668864
      ],
      [
        "が、",
        -8.363933574404328
      ],
      [
        "膜",
        -8.364051156461965
      ],
      [
        "よりも",
        -8.364311613455596
      ],
      [
        "処置",
        -8.365410823897854
      ],
      [
        "マ",
        -8.366044015380798
      ],
      [
        "急性",
        -8.368295023276813
      ],
      [
        "状",
        -8.368320668275443
      ],
      [
        "レベル",
        -8.369475510543392
      ],
      [
        "ストレス",
        -8.371041329105628
      ],
      [
        "▁２）",
        -8.371853009820727
      ],
      [
        "再",
        -8.372316378889325
      ],
      [
        "ＩＩ",
        -8.374901086886835
      ],
      [
        "小",
        -8.374990968273002
      ],
      [
        "ｎ",
        -8.376421714922994
      ],
      [
        "健康",
        -8.380440215598535
      ],
      [
        "高齢者",
        -8.38099060363966
      ],
      [
        "照射",
        -8.381285246487
      ],
      [
        "入院",
        -8.384336950409503
      ],
      [
        "が認められた。",
        -8.389976847832946
      ],
      [
        "胃",
        -8.390176850066107
      ],
      [
        "代謝",
        -8.391022778922254
      ],
      [
        "予後",
        -8.391294227943533
      ],
      [
        "方",
        -8.391613955348662
      ],
      [
        "▁さらに，",
        -8.391929959516196
      ],
      [
        "面",
        -8.39435879792221
      ],
      [
        "の治療",
        -8.399938214847968
      ],
      [
        "課題",
        -8.399976002085845
      ],
      [
        "分",
        -8.402173193995019
      ],
      [
        "に伴う",
        -8.404176801307877
      ],
      [
        "ｄ",
        -8.405889638641277
      ],
      [
        "能",
        -8.409495702797042
      ],
      [
        "がある",
        -8.41045785136638
      ],
      [
        "を示し，",
        -8.41371409301518
      ],
      [
        "結合",
        -8.415228154276846
      ],
      [
        "み",
        -8.41532033320428
      ],
      [
        "歯",
        -8.417694531354487
      ],
      [
        "増殖",
        -8.418780765456878
      ],
      [
        "多",
        -8.420150205429666
      ],
      [
        "１１",
        -8.421181014259663
      ],
      [
        "圧",
        -8.422503266152495
      ],
      [
        "，６）",
        -8.425637629973206
      ],
      [
        "妊娠",
        -8.428028669636479
      ],
      [
        "の診断",
        -8.42954833444539
      ],
      [
        "の改善",
        -8.42979768343685
      ],
      [
        "を行う",
        -8.4299523347878
      ],
      [
        "変異",
        -8.43146693473039
      ],
      [
        "ている",
        -8.432281734127304
      ],
      [
        "Ｗ",
        -8.435918113139927
      ],
      [
        "感",
        -8.436653076839406
      ],
      [
        "減少",
        -8.437097074052726
      ],
      [
        "シ",
        -8.438017048774663
      ],
      [
        "ラット",
        -8.441244900941903
      ],
      [
        "施行",
        -8.442351851012674
      ],
      [
        "ている。",
        -8.444621598121255
      ],
      [
        "のための",
        -8.444681149015947
      ],
      [
        "栄養",
        -8.444774673109706
      ],
      [
        "事",
        -8.44663762732229
      ],
      [
        "Ｘ",
        -8.44886216302527
      ],
      [
        "適応",
        -8.452793141288362
      ],
      [
        "産生",
        -8.453291533478609
      ],
      [
        "▁本稿では，",
        -8.458275086404992
      ],
      [
        "き",
        -8.458721361057384
      ],
      [
        "血液",
        -8.459632069896006
      ],
      [
        "地域",
        -8.460032884724086
      ],
      [
        "原因",
        -8.464299917616529
      ],
      [
        "のため",
        -8.466580070731528
      ],
      [
        "▁術後",
        -8.467293594813668
      ],
      [
        "となった。",
        -8.467528685413393
      ],
      [
        "能力",
        -8.472160242965481
      ],
      [
        "を述べた",
        -8.472447734772738
      ],
      [
        "経過",
        -8.473521114228829
      ],
      [
        "さ",
        -8.474550502726728
      ],
      [
        "治療法",
        -8.476037250329323
      ],
      [
        "家族",
        -8.478487964908194
      ],
      [
        "静脈",
        -8.479352402938204
      ],
      [
        "ロ",
        -8.48284404893954
      ],
      [
        "ない",
        -8.485680597050195
      ],
      [
        "学",
        -8.48682576533815
      ],
      [
        "，および",
        -8.48757565917927
      ],
      [
        "浸潤",
        -8.488625085278958
      ],
      [
        "検出",
        -8.489063726107972
      ],
      [
        "１６",
        -8.489912286818607
      ],
      [
        "のある",
        -8.490614846647375
      ],
      [
        "ＤＮＡ",
        -8.493164624561311
      ],
      [
        "チ",
        -8.493279374312012
      ],
      [
        "蛋白",
        -8.4939374499136
      ],
      [
        "の評価",
        -8.496000955104849
      ],
      [
        "に対し",
        -8.497580088433919
      ],
      [
        "カ",
        -8.501042583502384
      ],
      [
        "慢性",
        -8.50306429364016
      ],
      [
        "出",
        -8.503419324051292
      ],
      [
        "手",
        -8.503521764011236
      ],
      [
        "特徴",
        -8.503771803611885
      ],
      [
        "‐１",
        -8.50427395276804
      ],
      [
        "を行った",
        -8.507532914434854
      ],
      [
        "生",
        -8.508047859943757
      ],
      [
        "）を",
        -8.508230808180919
      ],
      [
        "▁１",
        -8.510518250610943
      ],
      [
        "気",
        -8.510889008879412
      ],
      [
        "Ｊ",
        -8.511237121112666
      ],
      [
        "小児",
        -8.514176412082533
      ],
      [
        "物質",
        -8.517276018513389
      ],
      [
        "酵素",
        -8.517878960888142
      ],
      [
        "活性化",
        -8.51821392754483
      ],
      [
        "同",
        -8.520580527233532
      ],
      [
        "す",
        -8.52107296802674
      ],
      [
        "毒性",
        -8.526362410827076
      ],
      [
        "血圧",
        -8.528199439671809
      ],
      [
        "導入",
        -8.528639957540316
      ],
      [
        "機構",
        -8.531079310614961
      ],
      [
        "コ",
        -8.533754970275073
      ],
      [
        "児",
        -8.53781114273524
      ],
      [
        "）は",
        -8.543039217213986
      ],
      [
        "が必要である。",
        -8.544546857574428
      ],
      [
        "ａｌ",
        -8.54562529039685
      ],
      [
        "誘導",
        -8.545973807857276
      ],
      [
        "，及び",
        -8.546127378052667
      ],
      [
        "であるが，",
        -8.548538178814374
      ],
      [
        "呼吸",
        -8.552891469066504
      ],
      [
        "進行",
        -8.554610816538865
      ],
      [
        "▁本",
        -8.556658557958723
      ],
      [
        "α",
        -8.55759825771434
      ],
      [
        "３０",
        -8.558441137152583
      ],
      [
        "等の",
        -8.560851588443436
      ],
      [
        "）。",
        -8.561550628632123
      ],
      [
        "炎症",
        -8.562610744145637
      ],
      [
        "式",
        -8.56405059479945
      ],
      [
        "リン",
        -8.564857937439001
      ],
      [
        "介入",
        -8.565914640413565
      ],
      [
        "薬物",
        -8.566667633297088
      ],
      [
        "▁３）",
        -8.567658025951447
      ],
      [
        "▁これらの",
        -8.568566748444432
      ],
      [
        "ｈ",
        -8.568630882823353
      ],
      [
        "造影",
        -8.568954702306291
      ],
      [
        "自己",
        -8.57335879050942
      ],
      [
        "▁Ｉ",
        -8.573401452470305
      ],
      [
        "尿",
        -8.574279130972021
      ],
      [
        "核",
        -8.576558703991804
      ],
      [
        "Ｕ",
        -8.57732727550666
      ],
      [
        "の低下",
        -8.578181773462553
      ],
      [
        "ｉ",
        -8.578382874937605
      ],
      [
        "条件",
        -8.584962064895924
      ],
      [
        "適切な",
        -8.587821667336268
      ],
      [
        "成分",
        -8.589116366874517
      ],
      [
        "分子",
        -8.589132882151269
      ],
      [
        "液",
        -8.591735363202103
      ],
      [
        "１８",
        -8.5919559476421
      ],
      [
        "炎",
        -8.592718543438421
      ],
      [
        "物",
        -8.592868404962019
      ],
      [
        "１４",
        -8.593082797542921
      ],
      [
        "上昇",
        -8.593555307564154
      ],
      [
        "光",
        -8.594399086735772
      ],
      [
        "と診断された",
        -8.595148907538194
      ],
      [
        "培養",
        -8.595235720786624
      ],
      [
        "局所",
        -8.597598238205501
      ],
      [
        "形態",
        -8.598510382630124
      ],
      [
        "特に",
        -8.59880723957215
      ],
      [
        "ｅ",
        -8.59887989601978
      ],
      [
        "痛",
        -8.599102752068733
      ],
      [
        "分泌",
        -8.599846419460935
      ],
      [
        "他の",
        -8.60075609978617
      ],
      [
        "死亡",
        -8.600790265503516
      ],
      [
        "中に",
        -8.60410025673777
      ],
      [
        "基準",
        -8.608972903512178
      ],
      [
        "の有無",
        -8.609867603503861
      ],
      [
        "ク",
        -8.61000758582532
      ],
      [
        "ル",
        -8.612684136048811
      ],
      [
        "ｆ",
        -8.613967621492494
      ],
      [
        "タ",
        -8.615644368537653
      ],
      [
        "標記",
        -8.615765981770304
      ],
      [
        "の特徴",
        -8.616139736800378
      ],
      [
        "以下の",
        -8.616595351912249
      ],
      [
        "１）",
        -8.617293865999764
      ],
      [
        "医師",
        -8.618109093914407
      ],
      [
        "されている。",
        -8.620113478155895
      ],
      [
        "摂取",
        -8.621725326364865
      ],
      [
        "率は",
        -8.621835584498665
      ],
      [
        "歩行",
        -8.62348368920764
      ],
      [
        "不",
        -8.625514118725395
      ],
      [
        "とも",
        -8.625814244840072
      ],
      [
        "新しい",
        -8.626116747666831
      ],
      [
        "▁その",
        -8.628225832815065
      ],
      [
        "ことが",
        -8.629686956834227
      ],
      [
        "菌",
        -8.630904807918993
      ],
      [
        "一",
        -8.631346172041406
      ],
      [
        "ミ",
        -8.631656025587029
      ],
      [
        "傾向",
        -8.631804739412969
      ],
      [
        "としての",
        -8.633427441090317
      ],
      [
        "欠損",
        -8.634183893308627
      ],
      [
        "食事",
        -8.636827618131033
      ],
      [
        "▁さらに",
        -8.637346075461421
      ],
      [
        "比",
        -8.637566188342479
      ],
      [
        "ことから，",
        -8.639669324106169
      ],
      [
        "理解",
        -8.641818581888712
      ],
      [
        "両",
        -8.642758835092017
      ],
      [
        "それぞれ",
        -8.64283251760471
      ],
      [
        "高血圧",
        -8.643902437005794
      ],
      [
        "とした。",
        -8.644621014454287
      ],
      [
        "レ",
        -8.6454677196901
      ],
      [
        "ｋ",
        -8.64555314032519
      ],
      [
        "類",
        -8.645600379085794
      ],
      [
        "拡大",
        -8.64621788231286
      ],
      [
        "イ",
        -8.648932517790492
      ],
      [
        "影響",
        -8.649374905534907
      ],
      [
        "エ",
        -8.650547471176804
      ],
      [
        "までの",
        -8.6507742698543
      ],
      [
        "（Ｃ",
        -8.651210647720013
      ],
      [
        "負荷",
        -8.652181065896517
      ],
      [
        "（Ｐ",
        -8.655039531581329
      ],
      [
        "細胞の",
        -8.658577404268366
      ],
      [
        "を持つ",
        -8.660231710155374
      ],
      [
        "粘膜",
        -8.661628567437337
      ],
      [
        "内容",
        -8.661967037015389
      ],
      [
        "長",
        -8.664007420020944
      ],
      [
        "解説した",
        -8.665931812174357
      ],
      [
        "，その",
        -8.667753412771221
      ],
      [
        "計",
        -8.668766783629714
      ],
      [
        "意識",
        -8.669017357852464
      ],
      [
        "疼痛",
        -8.669445640222994
      ],
      [
        "狭窄",
        -8.67279964901286
      ],
      [
        "不安",
        -8.673723537565554
      ],
      [
        "１７",
        -8.673827115221354
      ],
      [
        "肥満",
        -8.67433910506938
      ],
      [
        "１３",
        -8.67564779951764
      ],
      [
        "▁３",
        -8.676729804224927
      ],
      [
        "の原因",
        -8.680056222070396
      ],
      [
        "，特に",
        -8.68048931126673
      ],
      [
        "されている",
        -8.680665326978852
      ],
      [
        "になる",
        -8.681238537900375
      ],
      [
        "ｙ",
        -8.68287077485447
      ],
      [
        "生検",
        -8.68533804622952
      ],
      [
        "嚢胞",
        -8.688575396549446
      ],
      [
        "プログラム",
        -8.688865807920235
      ],
      [
        "対象",
        -8.69171320773639
      ],
      [
        "アプローチ",
        -8.694748954220769
      ],
      [
        "部分",
        -8.69653823546356
      ],
      [
        "死",
        -8.696611632156293
      ],
      [
        "感受性",
        -8.69716051223646
      ],
      [
        "ＭＲＩ",
        -8.697729048750514
      ],
      [
        "さらに",
        -8.700780360067995
      ],
      [
        "Ｙ",
        -8.70104377942822
      ],
      [
        "副作用",
        -8.70110783841035
      ],
      [
        "多くの",
        -8.701383658251421
      ],
      [
        "術前",
        -8.702876615619742
      ],
      [
        "実験",
        -8.704827406166922
      ],
      [
        "心臓",
        -8.706036189790346
      ],
      [
        "高い",
        -8.70614051981905
      ],
      [
        "肺炎",
        -8.70716436019193
      ],
      [
        "５０",
        -8.707292552480858
      ],
      [
        "前に",
        -8.70735821391585
      ],
      [
        "▁一方，",
        -8.710651383007972
      ],
      [
        "記録",
        -8.71066317343329
      ],
      [
        "除去",
        -8.710712585322733
      ],
      [
        "差",
        -8.711645319161624
      ],
      [
        "目",
        -8.712183426531487
      ],
      [
        "β",
        -8.71327326507448
      ],
      [
        "リハビリテーション",
        -8.714167002753841
      ],
      [
        "発作",
        -8.714191966911388
      ],
      [
        "０",
        -8.715063349692054
      ],
      [
        "調べた。",
        -8.715248888203764
      ],
      [
        "線",
        -8.71587917179992
      ],
      [
        "早期",
        -8.717544901176376
      ],
      [
        "期間",
        -8.719233088498678
      ],
      [
        "これらの",
        -8.72164360368382
      ],
      [
        "しており，",
        -8.722962895058961
      ],
      [
        "との関連",
        -8.723379775781169
      ],
      [
        "となり，",
        -8.724019777743877
      ],
      [
        "誘発",
        -8.724032650412582
      ],
      [
        "熱",
        -8.726144550736043
      ],
      [
        "，女性",
        -8.727625062823366
      ],
      [
        "群で",
        -8.730893949345687
      ],
      [
        "外来",
        -8.730919011957331
      ],
      [
        "相",
        -8.7315432205078
      ],
      [
        "経過観察",
        -8.73159168631584
      ],
      [
        "制御",
        -8.731698930431365
      ],
      [
        "血中",
        -8.73182888834663
      ],
      [
        "群では",
        -8.73258800362574
      ],
      [
        "訓練",
        -8.732800299492931
      ],
      [
        "ン",
        -8.732968604755117
      ],
      [
        "させる",
        -8.733268474447256
      ],
      [
        "別",
        -8.73416264721961
      ],
      [
        "体重",
        -8.734387092994998
      ],
      [
        "Ｃａ",
        -8.735012966308371
      ],
      [
        "様々な",
        -8.73618750703396
      ],
      [
        "説明",
        -8.737348142724114
      ],
      [
        "（Ａ",
        -8.738470375354712
      ],
      [
        "維持",
        -8.738521450590198
      ],
      [
        "食道",
        -8.74010271976019
      ],
      [
        "動作",
        -8.74344147190298
      ],
      [
        "１９",
        -8.744462445639769
      ],
      [
        "痛み",
        -8.745070645255083
      ],
      [
        "日本",
        -8.745251072375703
      ],
      [
        "紹介した。",
        -8.746423418076924
      ],
      [
        "かつ",
        -8.746717314301959
      ],
      [
        "表",
        -8.746774397899564
      ],
      [
        "の存在",
        -8.747204981223472
      ],
      [
        "以下",
        -8.747382654693874
      ],
      [
        "経験",
        -8.74779438935031
      ],
      [
        "イン",
        -8.74923295196876
      ],
      [
        "移動",
        -8.749338900036195
      ],
      [
        "目的",
        -8.749602142933423
      ],
      [
        "の役割",
        -8.750213835580583
      ],
      [
        "口",
        -8.75146428578958
      ],
      [
        "の増加",
        -8.751522893908847
      ],
      [
        "外傷",
        -8.752800461679525
      ],
      [
        "±",
        -8.753669489777355
      ],
      [
        "経",
        -8.755322833586568
      ],
      [
        "１例",
        -8.756784036418777
      ],
      [
        "パターン",
        -8.759084980791652
      ],
      [
        "器",
        -8.759107718754255
      ],
      [
        "がみられた",
        -8.759115216940831
      ],
      [
        "）、",
        -8.76032628372282
      ],
      [
        "計画",
        -8.760416787489953
      ],
      [
        "」「",
        -8.760440994967468
      ],
      [
        "とともに",
        -8.76127595950843
      ],
      [
        "選択",
        -8.76330389603414
      ],
      [
        "可能性",
        -8.764313950155742
      ],
      [
        "４０",
        -8.764636046711674
      ],
      [
        "特性",
        -8.767996016315905
      ],
      [
        "指標",
        -8.76833528064912
      ],
      [
        "透析",
        -8.768849083272743
      ],
      [
        "開始",
        -8.769682543312912
      ],
      [
        "の発現",
        -8.772979217208212
      ],
      [
        "検診",
        -8.776882756676812
      ],
      [
        "調節",
        -8.777044445953264
      ],
      [
        "のうち",
        -8.777197861719829
      ],
      [
        "成人",
        -8.778350067298199
      ],
      [
        "径",
        -8.778706418462717
      ],
      [
        "分布",
        -8.778842702831513
      ],
      [
        "確認",
        -8.780288187921732
      ],
      [
        "過",
        -8.782158826660316
      ],
      [
        "ブ",
        -8.782639084745558
      ],
      [
        "部の",
        -8.782872990249288
      ],
      [
        "となる。",
        -8.783181727614933
      ],
      [
        "コントロール",
        -8.784992630719476
      ],
      [
        "を中心に",
        -8.785274982437715
      ],
      [
        "層",
        -8.78581543778227
      ],
      [
        "と考えた",
        -8.786596872635858
      ],
      [
        "検体",
        -8.786744572021567
      ],
      [
        "ｏ",
        -8.78988557260345
      ],
      [
        "利用",
        -8.79046271374979
      ],
      [
        "株",
        -8.791169342636408
      ],
      [
        "陰性",
        -8.792438996611583
      ],
      [
        "テスト",
        -8.792587594967763
      ],
      [
        "生体",
        -8.799518334440958
      ],
      [
        "ており，",
        -8.801655318675458
      ],
      [
        "製剤",
        -8.802404570678767
      ],
      [
        "操作",
        -8.802617526731714
      ],
      [
        "最大",
        -8.804236170768075
      ],
      [
        "つ",
        -8.806599095260177
      ],
      [
        "血流",
        -8.806627437203545
      ],
      [
        "（Ｓ",
        -8.806642660224702
      ],
      [
        "はなかった。",
        -8.8081209615316
      ],
      [
        "▁しかし",
        -8.809197984029655
      ],
      [
        "臓器",
        -8.809950136094272
      ],
      [
        "については",
        -8.81021676543797
      ],
      [
        "ノ",
        -8.810366908884763
      ],
      [
        "▁【結果】",
        -8.811310906212567
      ],
      [
        "年",
        -8.81283986837131
      ],
      [
        "２５",
        -8.812916541922807
      ],
      [
        "ＰＤ",
        -8.81469967075642
      ],
      [
        "の影響",
        -8.815337189017468
      ],
      [
        "ｒ",
        -8.815714741818988
      ],
      [
        "；",
        -8.817584360777639
      ],
      [
        "を対象に",
        -8.817726896030557
      ],
      [
        "を対象とした",
        -8.818822538462824
      ],
      [
        "Ｑ",
        -8.819054401121614
      ],
      [
        "ナ",
        -8.819402126234406
      ],
      [
        "困難",
        -8.820611909419993
      ],
      [
        "身体",
        -8.822423670337496
      ],
      [
        "ｅｒ",
        -8.824548410636755
      ],
      [
        "重症",
        -8.824720917088634
      ],
      [
        "▁Ａ",
        -8.825648659368927
      ],
      [
        "され",
        -8.825956994569983
      ],
      [
        "心筋",
        -8.827014488311338
      ],
      [
        "から，",
        -8.82935521798997
      ],
      [
        "脂肪",
        -8.832909202688946
      ],
      [
        "内に",
        -8.83393264204741
      ],
      [
        "メ",
        -8.834980355994126
      ],
      [
        "撮影",
        -8.835054402196414
      ],
      [
        "現在",
        -8.83742947411979
      ],
      [
        "閉塞",
        -8.83916175090984
      ],
      [
        "ム",
        -8.839929043760385
      ],
      [
        "頭",
        -8.840293066265945
      ],
      [
        "介護",
        -8.840478785801922
      ],
      [
        "良好な",
        -8.842397668449806
      ],
      [
        "これら",
        -8.84346624206619
      ],
      [
        "認識",
        -8.845657536938708
      ],
      [
        "経路",
        -8.846212996727642
      ],
      [
        "子",
        -8.847075523933729
      ],
      [
        "においても",
        -8.847099826057233
      ],
      [
        "▁標記",
        -8.851252368356663
      ],
      [
        "腸管",
        -8.852022042034452
      ],
      [
        "社会",
        -8.852645885254109
      ],
      [
        "耐性",
        -8.854157998496497
      ],
      [
        "があった。",
        -8.854380795444696
      ],
      [
        "乳癌",
        -8.856898361500264
      ],
      [
        "頻度",
        -8.856901633326112
      ],
      [
        "有",
        -8.859074029777627
      ],
      [
        "バ",
        -8.859606443078503
      ],
      [
        "程度",
        -8.859638209886715
      ],
      [
        "症例は",
        -8.861000890754427
      ],
      [
        "モ",
        -8.862014210548885
      ],
      [
        "ま",
        -8.862606665454013
      ],
      [
        "手技",
        -8.863776607317122
      ],
      [
        "ともに",
        -8.864643149370671
      ],
      [
        "悪性",
        -8.867344617599962
      ],
      [
        "の発生",
        -8.867490929731034
      ],
      [
        "看護師",
        -8.868906578155089
      ],
      [
        "の使用",
        -8.869182948023271
      ],
      [
        "拡張",
        -8.869355359490708
      ],
      [
        "初期",
        -8.86960898545466
      ],
      [
        "ので，",
        -8.87091444184217
      ],
      [
        "学習",
        -8.871554347055547
      ],
      [
        "の発症",
        -8.871711198565277
      ],
      [
        "Ｚ",
        -8.87206689628497
      ],
      [
        "しない",
        -8.872794902185948
      ],
      [
        "医",
        -8.874395343118705
      ],
      [
        "摘出",
        -8.874764060067184
      ],
      [
        "＝",
        -8.87477196624789
      ],
      [
        "食品",
        -8.877897092993814
      ],
      [
        "のポイント",
        -8.878558002279767
      ],
      [
        "回復",
        -8.878657858761299
      ],
      [
        "表面",
        -8.87914182955724
      ],
      [
        "ていた。",
        -8.880019466999961
      ],
      [
        "放射線",
        -8.882729444550035
      ],
      [
        "上皮",
        -8.883984827422804
      ],
      [
        "に基づく",
        -8.884181636093093
      ],
      [
        "会",
        -8.888054667796885
      ],
      [
        "最も",
        -8.888338413919502
      ],
      [
        "ＲＡ",
        -8.888612368396272
      ],
      [
        "速度",
        -8.889501494172878
      ],
      [
        "される。",
        -8.889712471384124
      ],
      [
        "見",
        -8.89029073217296
      ],
      [
        "ｏｒ",
        -8.890355125206488
      ],
      [
        "プロ",
        -8.890681241794297
      ],
      [
        "の可能性",
        -8.891135325141532
      ],
      [
        "ニ",
        -8.891334758057967
      ],
      [
        "間の",
        -8.892496912184995
      ],
      [
        "各種",
        -8.893422333088058
      ],
      [
        "場合",
        -8.894793276013056
      ],
      [
        "ための",
        -8.896335684540484
      ],
      [
        "（Ｍ",
        -8.896645820071344
      ],
      [
        "ガイドライン",
        -8.896834507313745
      ],
      [
        "ように",
        -8.897418573926002
      ],
      [
        "グループ",
        -8.897439819217157
      ],
      [
        "角",
        -8.898235447493766
      ],
      [
        "曝露",
        -8.899954879057706
      ],
      [
        "ＣＤ",
        -8.902351051226093
      ],
      [
        "膝",
        -8.90311674336132
      ],
      [
        "網膜",
        -8.904608529728257
      ],
      [
        "の結果",
        -8.906127271147316
      ],
      [
        "胎児",
        -8.909374034933622
      ],
      [
        "超音波",
        -8.909600506744665
      ],
      [
        "内視鏡",
        -8.90980517015549
      ],
      [
        "場合，",
        -8.91157013724809
      ],
      [
        "の効果",
        -8.91220935159699
      ],
      [
        "総",
        -8.912467522789823
      ],
      [
        "業務",
        -8.91275298100941
      ],
      [
        "併用",
        -8.913700315531452
      ],
      [
        "Ｔ細胞",
        -8.914046886020213
      ],
      [
        "可能",
        -8.91422724528334
      ],
      [
        "重要な",
        -8.915312797943926
      ],
      [
        "のない",
        -8.915692032772258
      ],
      [
        "足",
        -8.916270354835486
      ],
      [
        "とう痛",
        -8.916314187753471
      ],
      [
        "２例",
        -8.916466550350151
      ],
      [
        "報告した。",
        -8.91776226653546
      ],
      [
        "受診",
        -8.919272678791765
      ],
      [
        "った",
        -8.921250141737902
      ],
      [
        "十分な",
        -8.921529848358233
      ],
      [
        "酸",
        -8.922151360949556
      ],
      [
        "オ",
        -8.922384367555045
      ],
      [
        "血症",
        -8.925097915704063
      ],
      [
        "ほど",
        -8.925798627544891
      ],
      [
        "他",
        -8.926389284403877
      ],
      [
        "血",
        -8.926547045970201
      ],
      [
        "１００",
        -8.927655315161553
      ],
      [
        "手法",
        -8.928885505677417
      ],
      [
        "染色",
        -8.929346259324056
      ],
      [
        "麻酔",
        -8.930081583880055
      ],
      [
        "う",
        -8.93106398338272
      ],
      [
        "壊死",
        -8.931409291083675
      ],
      [
        "であり、",
        -8.931763824358455
      ],
      [
        "カテーテル",
        -8.932688507639948
      ],
      [
        "位",
        -8.932958118105487
      ],
      [
        "阻害",
        -8.93387102336487
      ],
      [
        "術式",
        -8.934415308996488
      ],
      [
        "周囲",
        -8.934656495644116
      ],
      [
        "男性で，",
        -8.935723429561966
      ],
      [
        "肝臓",
        -8.935751463206499
      ],
      [
        "分化",
        -8.936250203953396
      ],
      [
        "長期",
        -8.936558013963891
      ],
      [
        "位置",
        -8.937536452686619
      ],
      [
        "管",
        -8.93950676012223
      ],
      [
        "）が",
        -8.940687319063704
      ],
      [
        "時期",
        -8.941021693133754
      ],
      [
        "症例の",
        -8.941104874489954
      ],
      [
        "成績",
        -8.94179687039964
      ],
      [
        "判定",
        -8.943810278858754
      ],
      [
        "セ",
        -8.946045332059873
      ],
      [
        "相談",
        -8.946293300355535
      ],
      [
        "サ",
        -8.947048653228839
      ],
      [
        "由来",
        -8.947486814301108
      ],
      [
        "，７）",
        -8.948438874306234
      ],
      [
        "波",
        -8.948546943936455
      ],
      [
        "腫りゅう",
        -8.949350813888527
      ],
      [
        "注入",
        -8.949733617448418
      ],
      [
        "合成",
        -8.949902600354957
      ],
      [
        "直接",
        -8.950622313652554
      ],
      [
        "地",
        -8.950625696276017
      ],
      [
        "ことが示唆された。",
        -8.953574162969936
      ],
      [
        "種々の",
        -8.95379797138707
      ],
      [
        "開発",
        -8.95459932649723
      ],
      [
        "▁Ｃ",
        -8.95521184611446
      ],
      [
        "の重要性",
        -8.955244036034024
      ],
      [
        "発達",
        -8.95551580090934
      ],
      [
        "して，",
        -8.955802291094798
      ],
      [
        "リンパ節",
        -8.955946794200772
      ],
      [
        "所",
        -8.957465256890249
      ],
      [
        "１日",
        -8.959473377622409
      ],
      [
        "の必要性",
        -8.959734453414152
      ],
      [
        "テ",
        -8.960018034566055
      ],
      [
        "向上",
        -8.961173404584855
      ],
      [
        "患者は",
        -8.961923630607643
      ],
      [
        "両側",
        -8.962062702845623
      ],
      [
        "，また",
        -8.96247307559892
      ],
      [
        "特異的",
        -8.962507377846668
      ],
      [
        "者の",
        -8.962873817583912
      ],
      [
        "図",
        -8.962883217823414
      ],
      [
        "比較的",
        -8.963184723171441
      ],
      [
        "体制",
        -8.963294847199723
      ],
      [
        "集団",
        -8.963749805024023
      ],
      [
        "病棟",
        -8.963759054737174
      ],
      [
        "の病態",
        -8.964290384521073
      ],
      [
        "再建",
        -8.964361620842482
      ],
      [
        "それ",
        -8.96561240523368
      ],
      [
        "以外の",
        -8.96592712203605
      ],
      [
        "形",
        -8.96710164845789
      ],
      [
        "って",
        -8.968948958217094
      ],
      [
        "については，",
        -8.9690571381475
      ],
      [
        "二",
        -8.9690983385605
      ],
      [
        "大きな",
        -8.970369973690065
      ],
      [
        "を行う。",
        -8.971961165240605
      ],
      [
        "大学",
        -8.97217436170237
      ],
      [
        "を用い，",
        -8.973154063666952
      ],
      [
        "生存",
        -8.973750721950067
      ],
      [
        "保存",
        -8.97392907372385
      ],
      [
        "インスリン",
        -8.97400000228681
      ],
      [
        "に関して",
        -8.974653155228186
      ],
      [
        "過程",
        -8.976927227085453
      ],
      [
        "また",
        -8.979156067197737
      ],
      [
        "を示した",
        -8.984597818985366
      ],
      [
        "の異常",
        -8.984712446307789
      ],
      [
        "口腔",
        -8.985267011232319
      ],
      [
        "６０",
        -8.989910199341224
      ],
      [
        "群の",
        -8.991200201941783
      ],
      [
        "だった。",
        -8.993381540582151
      ],
      [
        "ること",
        -8.993999677009791
      ],
      [
        "回",
        -8.994268442103362
      ],
      [
        "ｌ",
        -8.994647093766575
      ],
      [
        "れ",
        -8.994964573337775
      ],
      [
        "脊髄",
        -8.996304037730733
      ],
      [
        "制限",
        -8.996777788051935
      ],
      [
        "（Ｔ",
        -8.997098309292378
      ],
      [
        "段階",
        -8.99740909700409
      ],
      [
        "上の",
        -8.998997137219366
      ],
      [
        "とする",
        -8.999678143799603
      ],
      [
        "薬物療法",
        -9.000808568831566
      ],
      [
        "作業",
        -9.000822869884706
      ],
      [
        "の方が",
        -9.001012431598035
      ],
      [
        "一般",
        -9.001398555874777
      ],
      [
        "応答",
        -9.003408332419431
      ],
      [
        "▁次に，",
        -9.003964111472582
      ],
      [
        "であったが，",
        -9.00468965003335
      ],
      [
        "音",
        -9.006560798855869
      ],
      [
        "ｉｎｇ",
        -9.006883009619463
      ],
      [
        "の開発",
        -9.007097551121408
      ],
      [
        "歯科",
        -9.008299305280234
      ],
      [
        "修復",
        -9.00830381148381
      ],
      [
        "ペプチド",
        -9.009498517325792
      ],
      [
        "新",
        -9.011209031191704
      ],
      [
        "挿入",
        -9.012023956635144
      ],
      [
        "半",
        -9.012136473586706
      ],
      [
        "種",
        -9.01281845244782
      ],
      [
        "胃癌",
        -9.013012463337004
      ],
      [
        "指",
        -9.014362687286033
      ],
      [
        "外側",
        -9.01500658076058
      ],
      [
        "に対し，",
        -9.016686758341468
      ],
      [
        "睡眠",
        -9.017434933546795
      ],
      [
        "ＩＩＩ",
        -9.017846859507262
      ],
      [
        "医学",
        -9.020291663854625
      ],
      [
        "新規",
        -9.022346532466775
      ],
      [
        "吸収",
        -9.023256810694
      ],
      [
        "のために",
        -9.023301667490276
      ],
      [
        "ホルモン",
        -9.025642697525894
      ],
      [
        "問題点",
        -9.025858726848188
      ],
      [
        "リンパ球",
        -9.02590811994964
      ],
      [
        "閉鎖",
        -9.026074742070852
      ],
      [
        "女性で，",
        -9.027357227183607
      ],
      [
        "についても",
        -9.02777260942104
      ],
      [
        "細菌",
        -9.028168916658888
      ],
      [
        "センター",
        -9.029227821053654
      ],
      [
        "ワクチン",
        -9.029487066618906
      ],
      [
        "スコア",
        -9.029660985196465
      ],
      [
        "できた。",
        -9.030357148367084
      ],
      [
        "合併",
        -9.033721308944264
      ],
      [
        "ウ",
        -9.034240489751037
      ],
      [
        "ＡＤ",
        -9.035089855436762
      ],
      [
        "範囲",
        -9.035487903886995
      ],
      [
        "患者に",
        -9.03583687796399
      ],
      [
        "▁４）",
        -9.035948616264829
      ],
      [
        "事業",
        -9.036479397981417
      ],
      [
        "直腸",
        -9.039153152823054
      ],
      [
        "未",
        -9.039177661136872
      ],
      [
        "ポイント",
        -9.039197638307922
      ],
      [
        "装着",
        -9.039224691658886
      ],
      [
        "こと，",
        -9.039265534704228
      ],
      [
        "においては",
        -9.039343342695442
      ],
      [
        "エネルギー",
        -9.0398444226714
      ],
      [
        "お",
        -9.040169956233855
      ],
      [
        "の減少",
        -9.040524487905136
      ],
      [
        "頚部",
        -9.041002827741584
      ],
      [
        "救急",
        -9.041361616247494
      ],
      [
        "目標",
        -9.042330405344549
      ],
      [
        "（ＩＩ）",
        -9.042737410447032
      ],
      [
        "を解説した",
        -9.043342187791865
      ],
      [
        "ｘ",
        -9.043377509256295
      ],
      [
        "治癒",
        -9.043575577235512
      ],
      [
        "継続",
        -9.043691953135244
      ],
      [
        "ビ",
        -9.04417473940418
      ],
      [
        "骨髄",
        -9.04448272930987
      ],
      [
        "標題",
        -9.04499085059211
      ],
      [
        "抗菌薬",
        -9.045151054233044
      ],
      [
        "の実際",
        -9.047045917813792
      ],
      [
        "に比べて",
        -9.047249700383968
      ],
      [
        "相関",
        -9.04876113458463
      ],
      [
        "］",
        -9.048824481833616
      ],
      [
        "の適応",
        -9.049411082641166
      ],
      [
        "検索",
        -9.054591208187558
      ],
      [
        "ことを示唆した",
        -9.054820729048284
      ],
      [
        "よう",
        -9.0553905951181
      ],
      [
        "術後の",
        -9.056519190724224
      ],
      [
        "ｕ",
        -9.05659950769241
      ],
      [
        "分離",
        -9.057092133526371
      ],
      [
        "を紹介した",
        -9.057716016359876
      ],
      [
        "対照",
        -9.057991525105166
      ],
      [
        "について解説",
        -9.058224783819032
      ],
      [
        "援助",
        -9.059050331477994
      ],
      [
        "腫瘤",
        -9.059497620153529
      ],
      [
        "を得た",
        -9.059734556757364
      ],
      [
        "人工",
        -9.059815361123102
      ],
      [
        "室",
        -9.06067275740705
      ],
      [
        "としては，",
        -9.06109890995661
      ],
      [
        "なく",
        -9.06148668366041
      ],
      [
        "▁これら",
        -9.06229049592883
      ],
      [
        "背景",
        -9.062565907364442
      ],
      [
        "ある",
        -9.06305509897428
      ],
      [
        "可能な",
        -9.064355150596745
      ],
      [
        "調整",
        -9.064951756869537
      ],
      [
        "子宮",
        -9.06556689781065
      ],
      [
        "研修",
        -9.067212233501024
      ],
      [
        "蛍光",
        -9.067891474235546
      ],
      [
        "すると",
        -9.069241372164893
      ],
      [
        "強度",
        -9.069661749133624
      ],
      [
        "グ",
        -9.07135147310391
      ],
      [
        "と考えられる",
        -9.07200637120432
      ],
      [
        "ａｒ",
        -9.072198335636584
      ],
      [
        "脳梗塞",
        -9.073293992897508
      ],
      [
        "ＳＴ",
        -9.073498573019585
      ],
      [
        "していた",
        -9.0737211359893
      ],
      [
        "有効",
        -9.074420265810032
      ],
      [
        "内服",
        -9.075225537928832
      ],
      [
        "内の",
        -9.077590744317716
      ],
      [
        "今後",
        -9.079619537590904
      ],
      [
        "注意",
        -9.079888349520155
      ],
      [
        "第１",
        -9.081286786147416
      ],
      [
        "値は",
        -9.081943549861004
      ],
      [
        "ならびに",
        -9.084524891822443
      ],
      [
        "▁【目的】",
        -9.084783867476537
      ],
      [
        "ＱＯＬ",
        -9.085337541019468
      ],
      [
        "サービス",
        -9.086012211415165
      ],
      [
        "Ｉの",
        -9.086917804195291
      ],
      [
        "発",
        -9.086933601019089
      ],
      [
        "デ",
        -9.089075670032535
      ],
      [
        "ベ",
        -9.089500849459249
      ],
      [
        "の予防",
        -9.089694653739713
      ],
      [
        "の中で",
        -9.089888614425185
      ],
      [
        "頭痛",
        -9.090065098398137
      ],
      [
        "阻害剤",
        -9.09007728286302
      ],
      [
        "チーム",
        -9.090711632748906
      ],
      [
        "Ｘ線",
        -9.091331349740074
      ],
      [
        "気道",
        -9.092496947537905
      ],
      [
        "創",
        -9.09301330653074
      ],
      [
        "ステロイド",
        -9.09620676560272
      ],
      [
        "対",
        -9.096342361263288
      ],
      [
        "の上昇",
        -9.096437574780408
      ],
      [
        "タイプ",
        -9.096592697088294
      ],
      [
        "角膜",
        -9.097537230902969
      ],
      [
        "にある",
        -9.099063690181678
      ],
      [
        "結核",
        -9.099195915386506
      ],
      [
        "心不全",
        -9.099250027028882
      ],
      [
        "）に",
        -9.099893705509183
      ],
      [
        "患者が",
        -9.101820181029645
      ],
      [
        "との関係",
        -9.102929952380636
      ],
      [
        "はなく，",
        -9.103344252268249
      ],
      [
        "）で",
        -9.103798805108832
      ],
      [
        "１年",
        -9.104627149076752
      ],
      [
        "の違い",
        -9.10466631441937
      ],
      [
        "制度",
        -9.105790800778868
      ],
      [
        "自然",
        -9.106113757048377
      ],
      [
        "に関与する",
        -9.106345467180232
      ],
      [
        "（１",
        -9.107091182730631
      ],
      [
        "強い",
        -9.108164303065417
      ],
      [
        "マーカー",
        -9.108180838949703
      ],
      [
        "切開",
        -9.108429602307654
      ],
      [
        "赤血球",
        -9.10871308942262
      ],
      [
        "小腸",
        -9.109340826022835
      ],
      [
        "変動",
        -9.111282125941658
      ],
      [
        "壁",
        -9.112971595709562
      ],
      [
        "成長",
        -9.113845438696265
      ],
      [
        "ために",
        -9.11474640510264
      ],
      [
        "▁Ｓ",
        -9.115099263634043
      ],
      [
        "の有用性",
        -9.117333432146877
      ],
      [
        "ｉｃ",
        -9.117644983783183
      ],
      [
        "予測",
        -9.117684404293689
      ],
      [
        "を測定した",
        -9.119753112873845
      ],
      [
        "ｖ",
        -9.1203785626569
      ],
      [
        "スト",
        -9.120494550973342
      ],
      [
        "▁【方法】",
        -9.120522918578835
      ],
      [
        "歴",
        -9.121134216122496
      ],
      [
        "線量",
        -9.121308594295318
      ],
      [
        "心電図",
        -9.12264548427034
      ],
      [
        "下顎",
        -9.124846764406822
      ],
      [
        "切除術",
        -9.12514000694626
      ],
      [
        "構成",
        -9.126161424447425
      ],
      [
        "できない",
        -9.126535931601268
      ],
      [
        "不全",
        -9.12685380884805
      ],
      [
        "結節",
        -9.127045300037237
      ],
      [
        "発熱",
        -9.127099849547491
      ],
      [
        "退院",
        -9.127961939094517
      ],
      [
        "酸素",
        -9.128417262517283
      ],
      [
        "認知",
        -9.130077890438374
      ],
      [
        "学校",
        -9.131261020367717
      ],
      [
        "事故",
        -9.132332189891768
      ],
      [
        "下肢",
        -9.132475792764792
      ],
      [
        "在宅",
        -9.133224036389876
      ],
      [
        "を対象に，",
        -9.13350728984041
      ],
      [
        "プ",
        -9.13393993588722
      ],
      [
        "ｅｎ",
        -9.1355422615442
      ],
      [
        "遊離",
        -9.13572482600211
      ],
      [
        "新たな",
        -9.136620381031038
      ],
      [
        "分娩",
        -9.137272464972527
      ],
      [
        "の問題",
        -9.137452531038315
      ],
      [
        "スクリーニング",
        -9.137912258633987
      ],
      [
        "医療機関",
        -9.138721482997344
      ],
      [
        "ダ",
        -9.138969727187597
      ],
      [
        "となった",
        -9.139084993187184
      ],
      [
        "浮腫",
        -9.139474925320656
      ],
      [
        "循環",
        -9.139881248977032
      ],
      [
        "矯正",
        -9.140366009940069
      ],
      [
        "と思われた",
        -9.14070403956284
      ],
      [
        "現象",
        -9.141635004055123
      ],
      [
        "５例",
        -9.142258059602122
      ],
      [
        "機序",
        -9.14240029576431
      ],
      [
        "知識",
        -9.142684119171255
      ],
      [
        "全身",
        -9.142872156409936
      ],
      [
        "異なる",
        -9.14320555526668
      ],
      [
        "科",
        -9.143692858990228
      ],
      [
        "ＣＲ",
        -9.143708548160348
      ],
      [
        "アポトーシス",
        -9.143787995996169
      ],
      [
        "学会",
        -9.145163630246053
      ],
      [
        "多発",
        -9.145430940244715
      ],
      [
        "」の",
        -9.145601002880223
      ],
      [
        "わ",
        -9.14603052175492
      ],
      [
        "注射",
        -9.146517295132272
      ],
      [
        "材料",
        -9.146852609426151
      ],
      [
        "を行い",
        -9.148087271760936
      ],
      [
        "画像診断",
        -9.14903136113667
      ],
      [
        "▁Ｐ",
        -9.149137849404784
      ],
      [
        "緊急",
        -9.149597015330755
      ],
      [
        "試料",
        -9.150589585333126
      ],
      [
        "高値",
        -9.151250763239894
      ],
      [
        "連携",
        -9.151840550114104
      ],
      [
        "ｅｄ",
        -9.152207708431536
      ],
      [
        "▁【考察】",
        -9.152757855251933
      ],
      [
        "質",
        -9.154283194555257
      ],
      [
        "ＭＳ",
        -9.155267909206604
      ],
      [
        "鼻",
        -9.155330996669248
      ],
      [
        "比較",
        -9.155788883031494
      ],
      [
        "輸血",
        -9.15642082633282
      ],
      [
        "パ",
        -9.156718076426207
      ],
      [
        "虚血",
        -9.157146371794257
      ],
      [
        "上で",
        -9.157919559423576
      ],
      [
        "を用いて，",
        -9.158087837533392
      ],
      [
        "役割",
        -9.158123570399733
      ],
      [
        "だ",
        -9.15910915694624
      ],
      [
        "め",
        -9.159346154178367
      ],
      [
        "腺癌",
        -9.159505216867393
      ],
      [
        "外科",
        -9.159508387739017
      ],
      [
        "の検討",
        -9.159926402292111
      ],
      [
        "血栓",
        -9.160744616761969
      ],
      [
        "貧血",
        -9.160758106002625
      ],
      [
        "ＰＳ",
        -9.160991333448104
      ],
      [
        "精神",
        -9.161256431082714
      ],
      [
        "病巣",
        -9.161524207201971
      ],
      [
        "ネ",
        -9.16349010403832
      ],
      [
        "を開始した",
        -9.16471070390451
      ],
      [
        "を実施した",
        -9.16536128089705
      ],
      [
        "洗浄",
        -9.168172244484555
      ],
      [
        "をもつ",
        -9.168267497945
      ],
      [
        "冠動脈",
        -9.16885020280747
      ],
      [
        "のうち，",
        -9.169857350982763
      ],
      [
        "カルシウム",
        -9.170070921922022
      ],
      [
        "弁",
        -9.170270388213188
      ],
      [
        "インプラント",
        -9.170911791822812
      ],
      [
        "ような",
        -9.172013776752916
      ],
      [
        "する必要がある。",
        -9.173171267473418
      ],
      [
        "できた",
        -9.174427820279982
      ],
      [
        "▁特に",
        -9.174804335657416
      ],
      [
        "アレルギー",
        -9.174881322530076
      ],
      [
        "気管支",
        -9.1758685423299
      ],
      [
        "不良",
        -9.176432743740015
      ],
      [
        "（Ｄ",
        -9.176742753320726
      ],
      [
        "の間に",
        -9.176999738780593
      ],
      [
        "法，",
        -9.17728501631773
      ],
      [
        "学生",
        -9.17748379648338
      ],
      [
        "は認められなかった",
        -9.178293671802049
      ],
      [
        "‐２",
        -9.1793826521396
      ],
      [
        "変形",
        -9.17958051557626
      ],
      [
        "の関与",
        -9.179603507445242
      ],
      [
        "キ",
        -9.179839101201765
      ],
      [
        "されていた",
        -9.17988836524247
      ],
      [
        "姿勢",
        -9.180189147131513
      ],
      [
        "新生児",
        -9.180730495325776
      ],
      [
        "肺癌",
        -9.181128390714695
      ],
      [
        "機器",
        -9.18153421337262
      ],
      [
        "化学",
        -9.18209677265372
      ],
      [
        "６例",
        -9.183457085931485
      ],
      [
        "２４",
        -9.183851671062897
      ],
      [
        "動",
        -9.186005968381531
      ],
      [
        "腹部",
        -9.186773302581155
      ],
      [
        "部に",
        -9.186954257947376
      ],
      [
        "２）",
        -9.187543811910675
      ],
      [
        "促進",
        -9.188518806892189
      ],
      [
        "前方",
        -9.18936117026266
      ],
      [
        "末梢",
        -9.189833473008353
      ],
      [
        "処方",
        -9.189902223588811
      ],
      [
        "胆管",
        -9.190949591371888
      ],
      [
        "脊椎",
        -9.192204284819372
      ],
      [
        "標準",
        -9.192347305503652
      ],
      [
        "明らかな",
        -9.193113147530438
      ],
      [
        "ｌｅ",
        -9.1931501185754
      ],
      [
        "脂質",
        -9.194355685754395
      ],
      [
        "ｅｌ",
        -9.19441849115914
      ],
      [
        "甲状腺",
        -9.195619652025632
      ],
      [
        "動物",
        -9.196410315067926
      ],
      [
        "すい",
        -9.197002702433554
      ],
      [
        "配列",
        -9.197444092378724
      ],
      [
        "であること",
        -9.198459545583614
      ],
      [
        "国",
        -9.198477612519016
      ],
      [
        "腸",
        -9.198494728700386
      ],
      [
        "軟骨",
        -9.19906609411409
      ],
      [
        "ｏｎ",
        -9.200996682941865
      ],
      [
        "といった",
        -9.201789900592589
      ],
      [
        "なかった。",
        -9.201931954683838
      ],
      [
        "法による",
        -9.202986864989086
      ],
      [
        "接触",
        -9.203472973151994
      ],
      [
        "計測",
        -9.20361540957601
      ],
      [
        "進展",
        -9.203723444135203
      ],
      [
        "連続",
        -9.204199063295976
      ],
      [
        "を受けた",
        -9.204340733817675
      ],
      [
        "したが，",
        -9.20465464581299
      ],
      [
        "乳房",
        -9.204736223612551
      ],
      [
        "ことを",
        -9.20483822756114
      ],
      [
        "名",
        -9.205167294563273
      ],
      [
        "線維",
        -9.205297475903413
      ],
      [
        "内側",
        -9.205597951265574
      ],
      [
        "」と",
        -9.207353860281518
      ],
      [
        "（Ｈ",
        -9.207858890527817
      ],
      [
        "細胞内",
        -9.207907758657797
      ],
      [
        "までに",
        -9.208229742831074
      ],
      [
        "への影響",
        -9.20855832825812
      ],
      [
        "染色体",
        -9.208602849641249
      ],
      [
        "合",
        -9.21096774823206
      ],
      [
        "▁ヒト",
        -9.212171964662462
      ],
      [
        "ひ",
        -9.212820346455286
      ],
      [
        "”",
        -9.213267552882192
      ],
      [
        "理由",
        -9.214058745212457
      ],
      [
        "膵",
        -9.21422409025552
      ],
      [
        "認知症",
        -9.214368440067904
      ],
      [
        "未満",
        -9.214536817978733
      ],
      [
        "軽度",
        -9.214929193107908
      ],
      [
        "え",
        -9.215835301389529
      ],
      [
        "持続",
        -9.21671374838111
      ],
      [
        "作成",
        -9.217806915244427
      ],
      [
        "），２）",
        -9.218079112721927
      ],
      [
        "），３）",
        -9.218523757391337
      ],
      [
        "［",
        -9.218651635511865
      ],
      [
        "感覚",
        -9.218875131444973
      ],
      [
        "と共に",
        -9.219584398436943
      ],
      [
        "よく",
        -9.21993928106766
      ],
      [
        "の向上",
        -9.22042362899492
      ],
      [
        "判断",
        -9.220994577820544
      ],
      [
        "人の",
        -9.221380900526649
      ],
      [
        "穿刺",
        -9.222329504000085
      ],
      [
        "の有効性",
        -9.222808262071094
      ],
      [
        "▁また、",
        -9.224038594653727
      ],
      [
        "の高い",
        -9.224057675634782
      ],
      [
        "視",
        -9.224239787758677
      ],
      [
        "ながら",
        -9.224623185597611
      ],
      [
        "▁標題",
        -9.225251084909058
      ],
      [
        "】",
        -9.225426416449972
      ],
      [
        "再生",
        -9.22544773235925
      ],
      [
        "発見",
        -9.22580607614897
      ],
      [
        "立",
        -9.227032646974518
      ],
      [
        "決定",
        -9.2271105842679
      ],
      [
        "フ",
        -9.227228362970626
      ],
      [
        "超",
        -9.227384435888784
      ],
      [
        "ｕｓ",
        -9.227858254007607
      ],
      [
        "単独",
        -9.228582442135927
      ],
      [
        "脱",
        -9.229600232888394
      ],
      [
        "法で",
        -9.22968773379525
      ],
      [
        "▁結果，",
        -9.231211062394603
      ],
      [
        "高度",
        -9.231783134011716
      ],
      [
        "行う",
        -9.231793783302598
      ],
      [
        "ＮＯ",
        -9.233449993793291
      ],
      [
        "は認めなかった",
        -9.234399650192216
      ],
      [
        "同一",
        -9.234529566973318
      ],
      [
        "２００",
        -9.234647226258735
      ],
      [
        "変性",
        -9.235571195284129
      ],
      [
        "石灰化",
        -9.2369149655527
      ],
      [
        "▁患者は",
        -9.237310395660936
      ],
      [
        "の測定",
        -9.23737633067719
      ],
      [
        "は「",
        -9.238032098578495
      ],
      [
        "依存性",
        -9.238574881677383
      ],
      [
        "血しょう",
        -9.23892736605637
      ],
      [
        "では、",
        -9.23893550824004
      ],
      [
        "８例",
        -9.239358751378978
      ],
      [
        "添加",
        -9.239704783450584
      ],
      [
        "が重要である。",
        -9.240293885397437
      ],
      [
        "▁「",
        -9.240613935535777
      ],
      [
        "切断",
        -9.240720198343327
      ],
      [
        "温度",
        -9.241541063478364
      ],
      [
        "に比べ",
        -9.242089058083533
      ],
      [
        "不足",
        -9.242728401193537
      ],
      [
        "のリスク",
        -9.243190009259392
      ],
      [
        "７例",
        -9.243658865380798
      ],
      [
        "，ｂ）",
        -9.243862304967612
      ],
      [
        "転倒",
        -9.245040407422158
      ],
      [
        "必要",
        -9.2454545175518
      ],
      [
        "女性の",
        -9.245456416321852
      ],
      [
        "すべき",
        -9.24610911426388
      ],
      [
        "後方",
        -9.24630276795734
      ],
      [
        "１０例",
        -9.24722021601096
      ],
      [
        "においては，",
        -9.247871066407184
      ],
      [
        "エコー",
        -9.248252388037884
      ],
      [
        "色",
        -9.24874212468006
      ],
      [
        "型の",
        -9.248868013825067
      ],
      [
        "と考えられた",
        -9.249253182570088
      ],
      [
        "リンパ節転移",
        -9.249977341866083
      ],
      [
        "収縮",
        -9.250656973302924
      ],
      [
        "ＡＴ",
        -9.25102652849196
      ],
      [
        "を使用した",
        -9.251287644798564
      ],
      [
        "の報告",
        -9.2516655545868
      ],
      [
        "動脈硬化",
        -9.25197877471568
      ],
      [
        "実践",
        -9.253123820192762
      ],
      [
        "ＣＯ",
        -9.253343332661116
      ],
      [
        "基本",
        -9.254170190190386
      ],
      [
        "は１",
        -9.254219612275964
      ],
      [
        "３例",
        -9.25435454769099
      ],
      [
        "群は",
        -9.256016437886116
      ],
      [
        "体験",
        -9.25659956467146
      ],
      [
        "―",
        -9.25671713257106
      ],
      [
        "と考える。",
        -9.257021031385529
      ],
      [
        "スポーツ",
        -9.257128428352074
      ],
      [
        "ＣＡ",
        -9.258018211422906
      ],
      [
        "の意義",
        -9.25821266835205
      ],
      [
        "便",
        -9.260141950224138
      ],
      [
        "述べた",
        -9.260148363407058
      ],
      [
        "▁対象は",
        -9.260360994852906
      ],
      [
        "の現状",
        -9.261392775055768
      ],
      [
        "蓄積",
        -9.261760458528286
      ],
      [
        "サイトカイン",
        -9.26184992175434
      ],
      [
        "トリ",
        -9.262167632730206
      ],
      [
        "倍",
        -9.26273239617093
      ],
      [
        "行",
        -9.263761607449942
      ],
      [
        "書",
        -9.265171936428262
      ],
      [
        "る。",
        -9.265371285547062
      ],
      [
        "中毒",
        -9.265431971350829
      ],
      [
        "の程度",
        -9.266732536729872
      ],
      [
        "についての",
        -9.2671679012014
      ],
      [
        "の関係",
        -9.267804326859562
      ],
      [
        "と思われる",
        -9.268063092881016
      ],
      [
        "いずれも",
        -9.26852781464451
      ],
      [
        "今後の",
        -9.26976626072043
      ],
      [
        "であり",
        -9.269841917562983
      ],
      [
        "保護",
        -9.270683310589666
      ],
      [
        "尿中",
        -9.27070974641677
      ],
      [
        "の投与",
        -9.271661999919624
      ],
      [
        "原",
        -9.271741156274691
      ],
      [
        "放射線治療",
        -9.272005758431565
      ],
      [
        "軸",
        -9.27203770380374
      ],
      [
        "耳",
        -9.27258939752248
      ],
      [
        "Ｎａ",
        -9.27332614857862
      ],
      [
        "安全性",
        -9.273613467282177
      ],
      [
        "（Ｅ",
        -9.273852478625804
      ],
      [
        "現状",
        -9.274014839395983
      ],
      [
        "と思われる。",
        -9.274154082902523
      ],
      [
        "大腸",
        -9.27497475305094
      ],
      [
        "２２",
        -9.276932299302436
      ],
      [
        "▁Ｂ",
        -9.277322742475668
      ],
      [
        "５年",
        -9.277937700943484
      ],
      [
        "，さらに",
        -9.278716081948785
      ],
      [
        "大動脈",
        -9.278730412857168
      ],
      [
        "推定",
        -9.280641323166169
      ],
      [
        "１～",
        -9.28126594990694
      ],
      [
        "剥離",
        -9.281293043303458
      ],
      [
        "概説した",
        -9.282280807027051
      ],
      [
        "親",
        -9.283131912420789
      ],
      [
        "市",
        -9.283440417250263
      ],
      [
        "表示",
        -9.283782450727184
      ],
      [
        "に対して，",
        -9.283986581388982
      ],
      [
        "中心",
        -9.284357132303327
      ],
      [
        "が認められ，",
        -9.284580622250436
      ],
      [
        "が高い",
        -9.284916270032738
      ],
      [
        "安全",
        -9.285889485843278
      ],
      [
        "実習",
        -9.286068681082089
      ],
      [
        "参加",
        -9.286226501023298
      ],
      [
        "経口",
        -9.286632826913202
      ],
      [
        "増加した。",
        -9.287207148108116
      ],
      [
        "ｉｔ",
        -9.288028926922449
      ],
      [
        "ＳＳ",
        -9.288698646917348
      ],
      [
        "糖",
        -9.28886944990714
      ],
      [
        "ＩＶ",
        -9.288994041807396
      ],
      [
        "８０",
        -9.289455311562303
      ],
      [
        "有意に",
        -9.289457052458406
      ],
      [
        "完全",
        -9.290298307480269
      ],
      [
        "ポリ",
        -9.290500215723986
      ],
      [
        "領域の",
        -9.290628289598123
      ],
      [
        "臨床症状",
        -9.29075794607526
      ],
      [
        "ＲＮＡ",
        -9.291385498365123
      ],
      [
        "が必要",
        -9.291512785532426
      ],
      [
        "補助",
        -9.292616413025552
      ],
      [
        "死亡率",
        -9.29295345664838
      ],
      [
        "全体の",
        -9.293801748297726
      ],
      [
        "縫合",
        -9.294087950878293
      ],
      [
        "左室",
        -9.295511804769532
      ],
      [
        "喫煙",
        -9.297988682528006
      ],
      [
        "を検討",
        -9.298683529702878
      ],
      [
        "単",
        -9.298820043430808
      ],
      [
        "胸部",
        -9.299802394393184
      ],
      [
        "が多く，",
        -9.30113330401911
      ],
      [
        "コミュニケーション",
        -9.301495275626426
      ],
      [
        "（Ｌ",
        -9.301606721617429
      ],
      [
        "従来の",
        -9.302579303388317
      ],
      [
        "腫",
        -9.302747319807564
      ],
      [
        "同じ",
        -9.302962054273076
      ],
      [
        "床",
        -9.303265916532832
      ],
      [
        "を試みた",
        -9.304190918848752
      ],
      [
        "ネットワーク",
        -9.304289392720635
      ],
      [
        "リング",
        -9.3044167008316
      ],
      [
        "可能性がある。",
        -9.3052987103364
      ],
      [
        "について説明した",
        -9.305867520147276
      ],
      [
        "濃度は",
        -9.30664101785607
      ],
      [
        "▁Ｍ",
        -9.3067382421459
      ],
      [
        "がない",
        -9.307159844140877
      ],
      [
        "早期に",
        -9.307407739861992
      ],
      [
        "ッ",
        -9.30820787492534
      ],
      [
        "，非",
        -9.308242422097848
      ],
      [
        "トレーニング",
        -9.308587013575794
      ],
      [
        "ほぼ",
        -9.309401102430853
      ],
      [
        "（Ｎ",
        -9.309786932433596
      ],
      [
        "４例",
        -9.309804499467264
      ],
      [
        "同定",
        -9.310366201610154
      ],
      [
        "由来の",
        -9.310668199811769
      ],
      [
        "を比較した",
        -9.310787971587368
      ],
      [
        "しゅよう",
        -9.311097800113949
      ],
      [
        "ｗ",
        -9.31226827238442
      ],
      [
        "要素",
        -9.31296932010643
      ],
      [
        "７０",
        -9.31430919546511
      ],
      [
        "１名",
        -9.314775080349763
      ],
      [
        "▁そこで",
        -9.316226049801234
      ],
      [
        "と比較して",
        -9.317295443592176
      ],
      [
        "サポート",
        -9.317435748768157
      ],
      [
        "▁まず，",
        -9.317943039879564
      ],
      [
        "悪化",
        -9.319392046680283
      ],
      [
        "腰椎",
        -9.320045414197349
      ],
      [
        "正",
        -9.320166734185293
      ],
      [
        "量は",
        -9.3205498191938
      ],
      [
        "▁＋",
        -9.32073442709829
      ],
      [
        "２７",
        -9.320936346702858
      ],
      [
        "病気",
        -9.320976126270198
      ],
      [
        "腺腫",
        -9.32099459678525
      ],
      [
        "発癌",
        -9.322478483260536
      ],
      [
        "ＣＰ",
        -9.322682271768098
      ],
      [
        "ＡＤＬ",
        -9.323052799172563
      ],
      [
        "自",
        -9.323401831620355
      ],
      [
        "日常生活",
        -9.323756140823606
      ],
      [
        "すると，",
        -9.324220507755037
      ],
      [
        "反射",
        -9.324479613727402
      ],
      [
        "凝固",
        -9.324550477491186
      ],
      [
        "遺伝子の",
        -9.325137549658132
      ],
      [
        "２１",
        -9.3254728989479
      ],
      [
        "化合物",
        -9.326471726490952
      ],
      [
        "股関節",
        -9.326656403596004
      ],
      [
        "－１",
        -9.32705624904524
      ],
      [
        "の進行",
        -9.327769243945584
      ],
      [
        "としては",
        -9.328372581999936
      ],
      [
        "を含めた",
        -9.32942495567552
      ],
      [
        "機能障害",
        -9.329543101017814
      ],
      [
        "が多い",
        -9.329723830487966
      ],
      [
        "解説",
        -9.330482376330549
      ],
      [
        "てんかん",
        -9.33113561630084
      ],
      [
        "言語",
        -9.331419616115523
      ],
      [
        "ｍｍ",
        -9.331872032882163
      ],
      [
        "スタッフ",
        -9.332176155946946
      ],
      [
        "の研究",
        -9.3326072083958
      ],
      [
        "方向",
        -9.33281559650542
      ],
      [
        "し，その",
        -9.332939265856709
      ],
      [
        "できる。",
        -9.33334068044574
      ],
      [
        "２３",
        -9.33338288156628
      ],
      [
        "診察",
        -9.33341058923043
      ],
      [
        "域",
        -9.333519130803744
      ],
      [
        "登録",
        -9.333546796478414
      ],
      [
        "を呈する",
        -9.33374360849214
      ],
      [
        "血小板",
        -9.33399007039196
      ],
      [
        "増強",
        -9.334373064867574
      ],
      [
        "傷害",
        -9.334465497282824
      ],
      [
        "しなかった。",
        -9.334607418385106
      ],
      [
        "まず",
        -9.334725089452084
      ],
      [
        "ック",
        -9.33558703575834
      ],
      [
        "骨盤",
        -9.336252692704276
      ],
      [
        "ピ",
        -9.336253861177092
      ],
      [
        "紹介",
        -9.336569629420415
      ],
      [
        "自動",
        -9.336678380283963
      ],
      [
        "シン",
        -9.3368075663527
      ],
      [
        "群と",
        -9.337352399896076
      ],
      [
        "にとって",
        -9.337944528686156
      ],
      [
        "毒素",
        -9.338494714747348
      ],
      [
        "延長",
        -9.340342722726348
      ],
      [
        "ジン",
        -9.340605208033177
      ],
      [
        "酸化",
        -9.342937564344163
      ],
      [
        "把握",
        -9.343253846065156
      ],
      [
        "麻ひ",
        -9.343342460810794
      ],
      [
        "するための",
        -9.343936066850992
      ],
      [
        "ａｔ",
        -9.344035550735825
      ],
      [
        "卵巣",
        -9.344334618286783
      ],
      [
        "消失",
        -9.344651580549131
      ],
      [
        "に関連する",
        -9.344781320718132
      ],
      [
        "の選択",
        -9.345005131021018
      ],
      [
        "臨床的",
        -9.345350818412188
      ],
      [
        "例では",
        -9.34539540391713
      ],
      [
        "に関わる",
        -9.34747751645916
      ],
      [
        "させ，",
        -9.348399627332904
      ],
      [
        "で、",
        -9.348714019778008
      ],
      [
        "▁最後に，",
        -9.349574094529396
      ],
      [
        "世界",
        -9.350321369331642
      ],
      [
        "流",
        -9.35066853459618
      ],
      [
        "（Ｉ",
        -9.35074487061804
      ],
      [
        "場合は",
        -9.350898717902538
      ],
      [
        "対照群",
        -9.351041056977667
      ],
      [
        "む",
        -9.353754787701824
      ],
      [
        "ＣＳ",
        -9.353941758193452
      ],
      [
        "２６",
        -9.354100548388717
      ],
      [
        "破裂",
        -9.355145480051728
      ],
      [
        "舌",
        -9.355502408040008
      ],
      [
        "妊婦",
        -9.356073489346652
      ],
      [
        "鉄",
        -9.356085605584058
      ],
      [
        "ケース",
        -9.356128654213842
      ],
      [
        "ぼうこう",
        -9.356764779841033
      ],
      [
        "実際の",
        -9.357649200118352
      ],
      [
        "針",
        -9.35775189392606
      ],
      [
        "せず，",
        -9.35780463760955
      ],
      [
        "ＭＲ",
        -9.35783674300145
      ],
      [
        "基",
        -9.360056984295287
      ],
      [
        "応用",
        -9.360149159747
      ],
      [
        "ｒｅ",
        -9.361331578942655
      ],
      [
        "（Ａ）",
        -9.36172961819654
      ],
      [
        "２８",
        -9.36327762480428
      ],
      [
        "を紹介",
        -9.36336339720217
      ],
      [
        "何",
        -9.363521499648655
      ],
      [
        "１回",
        -9.363891001035787
      ],
      [
        "大腿骨",
        -9.364322841097662
      ],
      [
        "圧迫",
        -9.36500830461177
      ],
      [
        "潰よう",
        -9.36545912908763
      ],
      [
        "超音波検査",
        -9.365510727002832
      ],
      [
        "採取",
        -9.366338697265672
      ],
      [
        "重",
        -9.36742004101451
      ],
      [
        "こう",
        -9.369659046157892
      ],
      [
        "（Ｆ",
        -9.371010408404986
      ],
      [
        "中止",
        -9.371131852711024
      ],
      [
        "を行うこと",
        -9.373516638381
      ],
      [
        "することで",
        -9.37439002896636
      ],
      [
        "を施行し，",
        -9.374824403839083
      ],
      [
        "肝細胞癌",
        -9.375145273356676
      ],
      [
        "腔",
        -9.375783962742076
      ],
      [
        "‐ａ）",
        -9.376275557701453
      ],
      [
        "ＥＲ",
        -9.376613800745362
      ],
      [
        "でき，",
        -9.376653068211612
      ],
      [
        "接種",
        -9.37686263755875
      ],
      [
        "通",
        -9.378138741009296
      ],
      [
        "設定",
        -9.378202393018038
      ],
      [
        "に必要な",
        -9.378243187247804
      ],
      [
        "筋力",
        -9.378846749209842
      ],
      [
        "入",
        -9.379113144113608
      ],
      [
        "危険因子",
        -9.379867578854483
      ],
      [
        "ｐ５３",
        -9.37994916120525
      ],
      [
        "を概説した",
        -9.380973113445766
      ],
      [
        "アセスメント",
        -9.381479356514811
      ],
      [
        "標本",
        -9.3821578034924
      ],
      [
        "金属",
        -9.383205437826955
      ],
      [
        "活用",
        -9.385036358088698
      ],
      [
        "吸引",
        -9.385072369863826
      ],
      [
        "９例",
        -9.385262599233371
      ],
      [
        "汚染",
        -9.386021050219938
      ],
      [
        "白血病",
        -9.38629557885188
      ],
      [
        "痴呆",
        -9.386369664157517
      ],
      [
        "一部",
        -9.386590160748936
      ],
      [
        "治療の",
        -9.386986347497686
      ],
      [
        "を調べた",
        -9.387286008873918
      ],
      [
        "数は",
        -9.387434535176288
      ],
      [
        "と診断し，",
        -9.387685990344238
      ],
      [
        "換気",
        -9.387829210700792
      ],
      [
        "を呈した",
        -9.38819688290499
      ],
      [
        "顔面",
        -9.38854108459122
      ],
      [
        "高齢",
        -9.389126205195256
      ],
      [
        "個人",
        -9.389389894536048
      ],
      [
        "アンケート",
        -9.390689875309194
      ],
      [
        "負担",
        -9.391601657895114
      ],
      [
        "母親",
        -9.391988860041709
      ],
      [
        "とし，",
        -9.393579238706597
      ],
      [
        "考察",
        -9.39391585276013
      ],
      [
        "皮質",
        -9.394002958394378
      ],
      [
        "の検出",
        -9.394146983852709
      ],
      [
        "分解",
        -9.39421176064275
      ],
      [
        "ＢＭＩ",
        -9.394337371407268
      ],
      [
        "そう",
        -9.394457351348688
      ],
      [
        "とした",
        -9.395364309413113
      ],
      [
        "イオン",
        -9.39593100095314
      ],
      [
        "訪問",
        -9.396512052597268
      ],
      [
        "肩",
        -9.396655237680784
      ],
      [
        "三",
        -9.397112930387882
      ],
      [
        "ところ",
        -9.397262191662811
      ],
      [
        "なし",
        -9.397381056162027
      ],
      [
        "すべての",
        -9.39743869293593
      ],
      [
        "細胞診",
        -9.398311368358716
      ],
      [
        "コン",
        -9.398495181962677
      ],
      [
        "前の",
        -9.39878319719686
      ],
      [
        "短縮",
        -9.39916515012742
      ],
      [
        "ことを示した",
        -9.399202963095387
      ],
      [
        "が最も",
        -9.399789974994183
      ],
      [
        "伸展",
        -9.401310329137516
      ],
      [
        "２名",
        -9.401409080469062
      ],
      [
        "高齢者の",
        -9.40155299405416
      ],
      [
        "結腸",
        -9.402029451702306
      ],
      [
        "出現",
        -9.402400020855117
      ],
      [
        "可能性が示唆された",
        -9.402612547272335
      ],
      [
        "鑑別",
        -9.403109255802764
      ],
      [
        "られる",
        -9.403316308258711
      ],
      [
        "移行",
        -9.404289901651214
      ],
      [
        "必要がある。",
        -9.404395182849568
      ],
      [
        "が必要である",
        -9.404583501792578
      ],
      [
        "▁Ｔ",
        -9.404692495247897
      ],
      [
        "の問題点",
        -9.404906054545458
      ],
      [
        "学的",
        -9.405734284952755
      ],
      [
        "国際",
        -9.40585239776744
      ],
      [
        "止血",
        -9.40687425343215
      ],
      [
        "急性期",
        -9.40700000478929
      ],
      [
        "（Ｂ",
        -9.407372222273484
      ],
      [
        "ａｔｉｏｎ",
        -9.407421477869166
      ],
      [
        "▁４",
        -9.407534047514496
      ],
      [
        "が多く",
        -9.407816787596037
      ],
      [
        "健常者",
        -9.408610296197688
      ],
      [
        "２つの",
        -9.408668174100802
      ],
      [
        "腰痛",
        -9.409417094209775
      ],
      [
        "ＰＡ",
        -9.40965146464277
      ],
      [
        "運動療法",
        -9.409857284314352
      ],
      [
        "表皮",
        -9.409971421254268
      ],
      [
        "の機能",
        -9.413536160980383
      ],
      [
        "不整脈",
        -9.413987294302556
      ],
      [
        "ット",
        -9.414209872139905
      ],
      [
        "遅延",
        -9.414282940702662
      ],
      [
        "を認め",
        -9.414416020774828
      ],
      [
        "吸入",
        -9.416616641586966
      ],
      [
        "，８）",
        -9.418086483657069
      ],
      [
        "チューブ",
        -9.418188451251517
      ],
      [
        "防止",
        -9.41837725136033
      ],
      [
        "枝",
        -9.41907682445334
      ],
      [
        "に対しては",
        -9.420168653988116
      ],
      [
        "消化管",
        -9.420926853994866
      ],
      [
        "反応性",
        -9.4214237936658
      ],
      [
        "ａｎ",
        -9.421667848589632
      ],
      [
        "コレステロール",
        -9.421807732951942
      ],
      [
        "男児",
        -9.42236230349994
      ],
      [
        "過剰",
        -9.422929892470982
      ],
      [
        "境界",
        -9.423049550503164
      ],
      [
        "癌の",
        -9.425194351302
      ],
      [
        "置換",
        -9.42653368803136
      ],
      [
        "サイズ",
        -9.427233065465618
      ],
      [
        "などが",
        -9.427236925852762
      ],
      [
        "台",
        -9.427640301382894
      ],
      [
        "の出現",
        -9.42771320149148
      ],
      [
        "アルコール",
        -9.427718790468155
      ],
      [
        "治療効果",
        -9.42999914195105
      ],
      [
        "ＰＴ",
        -9.430399500116128
      ],
      [
        "，術後",
        -9.43086831685756
      ],
      [
        "マクロファージ",
        -9.431291103294225
      ],
      [
        "疾病",
        -9.431534670704131
      ],
      [
        "主",
        -9.43213955518308
      ],
      [
        "ラン",
        -9.432344803032224
      ],
      [
        "放出",
        -9.434257043951847
      ],
      [
        "となり",
        -9.434476597098309
      ],
      [
        "先天性",
        -9.436827679410571
      ],
      [
        "の頻度",
        -9.437006200481353
      ],
      [
        "十二指腸",
        -9.438310768991249
      ],
      [
        "発育",
        -9.438853204614563
      ],
      [
        "症例では",
        -9.439102080146036
      ],
      [
        "視野",
        -9.43951815057106
      ],
      [
        "専門",
        -9.439834463241656
      ],
      [
        "下痢",
        -9.440187968648289
      ],
      [
        "留置",
        -9.440305051377246
      ],
      [
        "を介して",
        -9.440375133174902
      ],
      [
        "あり",
        -9.440481116345683
      ],
      [
        "ＰＣ",
        -9.440627173797896
      ],
      [
        "穿孔",
        -9.440846432287682
      ],
      [
        "腎臓",
        -9.44101220761774
      ],
      [
        "健診",
        -9.441227371135236
      ],
      [
        "させた",
        -9.441594829089524
      ],
      [
        "３名",
        -9.442175854928012
      ],
      [
        "しながら",
        -9.442269107376418
      ],
      [
        "３）",
        -9.444117113795825
      ],
      [
        "ガス",
        -9.444587149261393
      ],
      [
        "乳頭",
        -9.446383398160132
      ],
      [
        "ＳＰ",
        -9.44667348043557
      ],
      [
        "を主訴とした",
        -9.446694710121433
      ],
      [
        "高かった",
        -9.44684664293674
      ],
      [
        "基礎",
        -9.44725148717793
      ],
      [
        "やすい",
        -9.447546104224596
      ],
      [
        "例は",
        -9.4485209405444
      ],
      [
        "社会的",
        -9.449195340046646
      ],
      [
        "ツ",
        -9.4498482066769
      ],
      [
        "こ",
        -9.450013620158604
      ],
      [
        "ことが分かった。",
        -9.450428571748684
      ],
      [
        "信号",
        -9.450760089718994
      ],
      [
        "前後",
        -9.451284902250675
      ],
      [
        "侵襲",
        -9.451613823073412
      ],
      [
        "奇形",
        -9.45163159293498
      ],
      [
        "細胞株",
        -9.452385934930538
      ],
      [
        "り，",
        -9.453052963907483
      ],
      [
        "頭部",
        -9.453229579464544
      ],
      [
        "精神科",
        -9.453483007151377
      ],
      [
        "ボ",
        -9.454053306750083
      ],
      [
        "脱臼",
        -9.454597810250936
      ],
      [
        "低い",
        -9.454714262593962
      ],
      [
        "腹痛",
        -9.455689913907117
      ],
      [
        "２年",
        -9.45593795914662
      ],
      [
        "第一",
        -9.45607847035336
      ],
      [
        "当院",
        -9.456984310124405
      ],
      [
        "複数の",
        -9.458447598421165
      ],
      [
        "アミノ酸",
        -9.458646715100064
      ],
      [
        "院内",
        -9.458759133229156
      ],
      [
        "術中",
        -9.460287155250738
      ],
      [
        "二次",
        -9.460377679406198
      ],
      [
        "文献",
        -9.46040647502206
      ],
      [
        "生成",
        -9.46056105466007
      ],
      [
        "当",
        -9.460880081381577
      ],
      [
        "フェ",
        -9.461786981481795
      ],
      [
        "行った。",
        -9.461814253926384
      ],
      [
        "０．５",
        -9.4621581813618
      ],
      [
        "（２",
        -9.462570758390571
      ],
      [
        "について述べ，",
        -9.462651230743983
      ],
      [
        "ＩＰ",
        -9.463090470514892
      ],
      [
        "のような",
        -9.464883728584622
      ],
      [
        "１例，",
        -9.465480907207796
      ],
      [
        "疾患の",
        -9.465602032824751
      ],
      [
        "への対応",
        -9.465692234544806
      ],
      [
        "安定",
        -9.466139477142251
      ],
      [
        "クロ",
        -9.466224064816604
      ],
      [
        "周囲の",
        -9.466410876493756
      ],
      [
        "ｑ",
        -9.466467362597776
      ],
      [
        "生存率",
        -9.466781007964087
      ],
      [
        "プレ",
        -9.46871859286562
      ],
      [
        "結石",
        -9.468789588093228
      ],
      [
        "全体",
        -9.468838394137114
      ],
      [
        "大腸癌",
        -9.468963407913629
      ],
      [
        "傷",
        -9.469175429927011
      ],
      [
        "屈曲",
        -9.469352790102462
      ],
      [
        "腺",
        -9.470582057818724
      ],
      [
        "と述べた",
        -9.470824080846963
      ],
      [
        "紅斑",
        -9.471527580483489
      ],
      [
        "モニタリング",
        -9.471859614802703
      ],
      [
        "概念",
        -9.472711078993
      ],
      [
        "の合併",
        -9.473000552254147
      ],
      [
        "バランス",
        -9.4739843989123
      ],
      [
        "が存在する",
        -9.474531537878107
      ],
      [
        "脳卒中",
        -9.474748927987012
      ],
      [
        "測定法",
        -9.475121837114264
      ],
      [
        "病理",
        -9.475186625561497
      ],
      [
        "門脈",
        -9.475420790739218
      ],
      [
        "回数",
        -9.475609419369489
      ],
      [
        "５～",
        -9.475849911876033
      ],
      [
        "ため、",
        -9.475909829332124
      ],
      [
        "咽頭",
        -9.476025572918408
      ],
      [
        "感度",
        -9.476586064885604
      ],
      [
        "吻合",
        -9.477303910096932
      ],
      [
        "改善した。",
        -9.478265727392268
      ],
      [
        "含有",
        -9.478374749202452
      ],
      [
        "▁【",
        -9.47838931161795
      ],
      [
        "していく",
        -9.478916377654777
      ],
      [
        "３年",
        -9.47909946630886
      ],
      [
        "２４時間",
        -9.479223639517432
      ],
      [
        "輸液",
        -9.479293231253118
      ],
      [
        "内視鏡的",
        -9.47935574123812
      ],
      [
        "２９",
        -9.479500582486544
      ],
      [
        "準備",
        -9.480339346260813
      ],
      [
        "接着",
        -9.480477368848756
      ],
      [
        "ｐＨ",
        -9.481562970380828
      ],
      [
        "ステント",
        -9.482471539351494
      ],
      [
        "ｏｌ",
        -9.483226389818071
      ],
      [
        "総合",
        -9.483285136889055
      ],
      [
        "によるもの",
        -9.483724112167504
      ],
      [
        "場",
        -9.483900433456109
      ],
      [
        "がみられ，",
        -9.484043898445732
      ],
      [
        "ナトリウム",
        -9.484137193132977
      ],
      [
        "事項",
        -9.48435162059948
      ],
      [
        "一次",
        -9.48494394712822
      ],
      [
        "前立腺癌",
        -9.48506264227573
      ],
      [
        "のみで",
        -9.485128181469523
      ],
      [
        "ヒ",
        -9.485611969947891
      ],
      [
        "シグナル",
        -9.486975571451012
      ],
      [
        "間で",
        -9.487722918117486
      ],
      [
        "計算",
        -9.48785677043112
      ],
      [
        "有効な",
        -9.487867190139616
      ],
      [
        "回答",
        -9.488214076673676
      ],
      [
        "３５",
        -9.488220823798088
      ],
      [
        "そ",
        -9.488248645371884
      ],
      [
        "の状態",
        -9.488860572356913
      ],
      [
        "が認められた",
        -9.48887082106647
      ],
      [
        "膀胱",
        -9.48888952197064
      ],
      [
        "なかった",
        -9.489638310698082
      ],
      [
        "２＋",
        -9.489820624128225
      ],
      [
        "ポ",
        -9.490505750273446
      ],
      [
        "放射線療法",
        -9.49072138891018
      ],
      [
        "ミトコンドリア",
        -9.490950904391449
      ],
      [
        "成熟",
        -9.492486079715444
      ],
      [
        "こう合",
        -9.492808001964203
      ],
      [
        "左側",
        -9.492851226807945
      ],
      [
        "微小",
        -9.493103250540113
      ],
      [
        "週",
        -9.49364388480708
      ],
      [
        "阻害薬",
        -9.493767846646891
      ],
      [
        "を実施",
        -9.49377749974015
      ],
      [
        "毛",
        -9.494218510496966
      ],
      [
        "（Ｒ",
        -9.495318767258413
      ],
      [
        "温",
        -9.495420941390458
      ],
      [
        "（Ｇ",
        -9.495622587920655
      ],
      [
        "のか",
        -9.496010407851646
      ],
      [
        "組織学的",
        -9.496131983185863
      ],
      [
        "病因",
        -9.497136383883737
      ],
      [
        "ール",
        -9.498103818851538
      ],
      [
        "細",
        -9.498122859034764
      ],
      [
        "最近",
        -9.498508739355648
      ],
      [
        "が多かった。",
        -9.498625826823712
      ],
      [
        "リンパ腫",
        -9.498764785202244
      ],
      [
        "主に",
        -9.498779034104867
      ],
      [
        "著明な",
        -9.499920119756478
      ],
      [
        "治療方針",
        -9.49993951138308
      ],
      [
        "分野",
        -9.50044365180038
      ],
      [
        "集積",
        -9.500699243892829
      ],
      [
        "保健",
        -9.500874127335734
      ],
      [
        "１．",
        -9.50100949696953
      ],
      [
        "と診断",
        -9.501939823915444
      ],
      [
        "の結果，",
        -9.502241608631005
      ],
      [
        "母",
        -9.502534279045763
      ],
      [
        "確定診断",
        -9.502934259490692
      ],
      [
        "２例，",
        -9.503063811832302
      ],
      [
        "球",
        -9.50347147929744
      ],
      [
        "重症度",
        -9.50362858386018
      ],
      [
        "▁以上より，",
        -9.504646045533596
      ],
      [
        "これ",
        -9.504647980709905
      ],
      [
        "＞",
        -9.504796884173878
      ],
      [
        "を調査した",
        -9.50497306612653
      ],
      [
        "男",
        -9.50505300081856
      ],
      [
        "女児",
        -9.505116082376288
      ],
      [
        "家庭",
        -9.505580379459184
      ],
      [
        "×",
        -9.506173903893968
      ],
      [
        "へと",
        -9.506300282374657
      ],
      [
        "▁症例１は",
        -9.506390797825413
      ],
      [
        "ん",
        -9.506893894184175
      ],
      [
        "鎖",
        -9.506960788393132
      ],
      [
        "内部",
        -9.507515251830146
      ],
      [
        "有用な",
        -9.507756089726422
      ],
      [
        "相互作用",
        -9.50795504373902
      ],
      [
        "９０",
        -9.508225523300442
      ],
      [
        "を施行",
        -9.508266204432916
      ],
      [
        "▁Ｄ",
        -9.508915843098247
      ],
      [
        "メカニズム",
        -9.510009638522774
      ],
      [
        "だけ",
        -9.51022896902022
      ],
      [
        "画像所見",
        -9.51048214204597
      ],
      [
        "逆",
        -9.510494953434774
      ],
      [
        "特異性",
        -9.510498730677714
      ],
      [
        "，「",
        -9.511152886327004
      ],
      [
        "することが",
        -9.512117754180505
      ],
      [
        "孔",
        -9.512279442408872
      ],
      [
        "肝硬変",
        -9.513392112345436
      ],
      [
        "全ての",
        -9.5136249019843
      ],
      [
        "子供",
        -9.513801653980163
      ],
      [
        "）は，",
        -9.514257403726084
      ],
      [
        "歯肉",
        -9.514502432846752
      ],
      [
        "様式",
        -9.514819886774369
      ],
      [
        "０．１",
        -9.514836922314784
      ],
      [
        "幹細胞",
        -9.515016170135295
      ],
      [
        "それら",
        -9.51547281671545
      ],
      [
        "を評価した",
        -9.515681158146135
      ],
      [
        "右側",
        -9.51643902223452
      ],
      [
        "治療薬",
        -9.516867931441144
      ],
      [
        "残",
        -9.517393243432547
      ],
      [
        "白血球",
        -9.518123303682708
      ],
      [
        "患者における",
        -9.518153624486144
      ],
      [
        "受傷",
        -9.518266742876468
      ],
      [
        "皮下",
        -9.518927356787566
      ],
      [
        "潰瘍",
        -9.519170673754054
      ],
      [
        "感情",
        -9.519886650365873
      ],
      [
        "性の",
        -9.520316284816246
      ],
      [
        "ことが多い。",
        -9.520614233454229
      ],
      [
        "５名",
        -9.521731310271598
      ],
      [
        "複合体",
        -9.521835932837716
      ],
      [
        "用量",
        -9.521999332996252
      ],
      [
        "ＡＲ",
        -9.52223131173537
      ],
      [
        "臨床試験",
        -9.522256893165926
      ],
      [
        "重要",
        -9.522933430355396
      ],
      [
        "標識",
        -9.522967052714568
      ],
      [
        "考え",
        -9.523429894874267
      ],
      [
        "レーザー",
        -9.52390176921881
      ],
      [
        "残存",
        -9.52472604893341
      ],
      [
        "を用いる",
        -9.52474110469103
      ],
      [
        "皮",
        -9.525490561648564
      ],
      [
        "原発性",
        -9.525849764285889
      ],
      [
        "６名",
        -9.525954273971172
      ],
      [
        "いた",
        -9.526949967607065
      ],
      [
        "エビデンス",
        -9.527505287665855
      ],
      [
        "を説明した",
        -9.527971269293875
      ],
      [
        "ゲノム",
        -9.5284467367837
      ],
      [
        "したところ，",
        -9.52867000014957
      ],
      [
        "全国",
        -9.529275923561134
      ],
      [
        "咬合",
        -9.530132259671436
      ],
      [
        "ＨＡ",
        -9.53019473714182
      ],
      [
        "」という",
        -9.530198273589631
      ],
      [
        "癒着",
        -9.530361864336184
      ],
      [
        "皮弁",
        -9.53070686285817
      ],
      [
        "単位",
        -9.530996777162583
      ],
      [
        "ず，",
        -9.531598212300528
      ],
      [
        "」を",
        -9.53215825169008
      ],
      [
        "尿管",
        -9.532401110210545
      ],
      [
        "有意な",
        -9.532578694548857
      ],
      [
        "有効性",
        -9.532680046103792
      ],
      [
        "パラメータ",
        -9.532909588087364
      ],
      [
        "通常の",
        -9.5333491243736
      ],
      [
        "薬剤師",
        -9.534466001983338
      ],
      [
        "となっている。",
        -9.536012717832191
      ],
      [
        "意識障害",
        -9.536406623785
      ],
      [
        "線維芽細胞",
        -9.53668303444035
      ],
      [
        "ｍｇ",
        -9.537310083919737
      ],
      [
        "麻痺",
        -9.537465850484526
      ],
      [
        "論",
        -9.538136967579632
      ],
      [
        "について考察した",
        -9.538147314258357
      ],
      [
        "の活性化",
        -9.53845484934882
      ],
      [
        "ＬＣ",
        -9.538708602912076
      ],
      [
        "写真",
        -9.539592000814366
      ],
      [
        "投与量",
        -9.539763650937688
      ],
      [
        "２～",
        -9.539852283265525
      ],
      [
        "一致",
        -9.540045854509732
      ],
      [
        "取り組み",
        -9.540139522972648
      ],
      [
        "などを",
        -9.54020532810511
      ],
      [
        "あ",
        -9.540339548047596
      ],
      [
        "５０％",
        -9.540352041069973
      ],
      [
        "の女性",
        -9.540536735075726
      ],
      [
        "気管",
        -9.54109297291036
      ],
      [
        "共に",
        -9.541573450354246
      ],
      [
        "を要する",
        -9.54183805870846
      ],
      [
        "ステージ",
        -9.542080473599704
      ],
      [
        "別に",
        -9.542199247623316
      ],
      [
        "が出現し，",
        -9.542209818105023
      ],
      [
        "前立腺",
        -9.543270485748854
      ],
      [
        "心理的",
        -9.543689664493714
      ],
      [
        "端",
        -9.544143171413925
      ],
      [
        "の場合",
        -9.544750148641876
      ],
      [
        "指数",
        -9.545299340129295
      ],
      [
        "診断基準",
        -9.54530448196807
      ],
      [
        "腫脹",
        -9.545703733049288
      ],
      [
        "破壊",
        -9.545801422886264
      ],
      [
        "又は",
        -9.546292234426565
      ],
      [
        "コラーゲン",
        -9.546311846578046
      ],
      [
        "うつ病",
        -9.546461571277373
      ],
      [
        "症の",
        -9.54703298336704
      ],
      [
        "ｚ",
        -9.547080830893004
      ],
      [
        "が出現した",
        -9.54719089944288
      ],
      [
        "縁",
        -9.548318694548966
      ],
      [
        "Ａ群",
        -9.54880892585715
      ],
      [
        "病日",
        -9.549319058306798
      ],
      [
        "▁今回，",
        -9.549397843703446
      ],
      [
        "着",
        -9.549477743373828
      ],
      [
        "Ｔ１",
        -9.54957201370724
      ],
      [
        "抽出",
        -9.551039511360935
      ],
      [
        "採血",
        -9.551176007479569
      ],
      [
        "胆嚢",
        -9.551469640437428
      ],
      [
        "単純",
        -9.551713546474057
      ],
      [
        "脳波",
        -9.55195571718692
      ],
      [
        "ことがわかった",
        -9.552025344612638
      ],
      [
        "男子",
        -9.552068766333484
      ],
      [
        "ＡＰ",
        -9.55230613077316
      ],
      [
        "対処",
        -9.552373171028064
      ],
      [
        "委員会",
        -9.552600802774313
      ],
      [
        "につき",
        -9.552819698663816
      ],
      [
        "を用い",
        -9.552904247615016
      ],
      [
        "）および",
        -9.5533611182595
      ],
      [
        "，女",
        -9.554792630000543
      ],
      [
        "ところ，",
        -9.554902600496591
      ],
      [
        "複合",
        -9.55509324916946
      ],
      [
        "者は",
        -9.555148518233704
      ],
      [
        "得られた",
        -9.555201718876216
      ],
      [
        "だけでなく，",
        -9.555540996894791
      ],
      [
        "幅",
        -9.556018671621551
      ],
      [
        "結果，",
        -9.556462038133828
      ],
      [
        "ＤＭ",
        -9.556530484726624
      ],
      [
        "４名",
        -9.55656194908958
      ],
      [
        "必要な",
        -9.556650783744075
      ],
      [
        "直",
        -9.55666090980414
      ],
      [
        "精度",
        -9.556684271437447
      ],
      [
        "口腔内",
        -9.556989964973486
      ],
      [
        "低値",
        -9.5570085380033
      ],
      [
        "ソ",
        -9.557303307636088
      ],
      [
        "に関しては",
        -9.557348826527708
      ],
      [
        "３～",
        -9.55743164977421
      ],
      [
        "存在",
        -9.55873678203981
      ],
      [
        "距離",
        -9.55908023130277
      ],
      [
        "患者では",
        -9.559304226222949
      ],
      [
        "良性",
        -9.560021260090323
      ],
      [
        "ことは",
        -9.560339024717573
      ],
      [
        "その他の",
        -9.560886586088618
      ],
      [
        "手順",
        -9.56123389743615
      ],
      [
        "第２",
        -9.562095682722584
      ],
      [
        "依存",
        -9.562211904931404
      ],
      [
        "ｕｍ",
        -9.562825020538927
      ],
      [
        "の実施",
        -9.563017998916209
      ],
      [
        "行為",
        -9.563302170277998
      ],
      [
        "葉",
        -9.563392758318576
      ],
      [
        "を認める",
        -9.564370316168867
      ],
      [
        "を紹介し，",
        -9.56516811731404
      ],
      [
        "造影剤",
        -9.565486337846734
      ],
      [
        "群（",
        -9.56551552172762
      ],
      [
        "治療成績",
        -9.565777831439304
      ],
      [
        "生後",
        -9.566035320732633
      ],
      [
        "片",
        -9.566527175259006
      ],
      [
        "▁そこで，",
        -9.566594638650855
      ],
      [
        "グルコース",
        -9.567245582331998
      ],
      [
        "腹",
        -9.567506349336822
      ],
      [
        "仕事",
        -9.568110813685363
      ],
      [
        "が可能",
        -9.568653293657665
      ],
      [
        "面積",
        -9.569126325291323
      ],
      [
        "を認めなかった",
        -9.570065976752808
      ],
      [
        "の患者",
        -9.570164542352122
      ],
      [
        "標的",
        -9.570187668347064
      ],
      [
        "原発",
        -9.570833465038293
      ],
      [
        "症状は",
        -9.571954088715174
      ],
      [
        "非常に",
        -9.572149923165776
      ],
      [
        "にかけて",
        -9.572208276313647
      ],
      [
        "内分泌",
        -9.572587309493558
      ],
      [
        "β‐",
        -9.573202479346785
      ],
      [
        "について報告した",
        -9.57330969546199
      ],
      [
        "極",
        -9.57447210554962
      ],
      [
        "ｃｈ",
        -9.574643581111282
      ],
      [
        "初回",
        -9.574872747925063
      ],
      [
        "悪性腫よう",
        -9.575186405323374
      ],
      [
        "ＰＥ",
        -9.575452638129685
      ],
      [
        "飲酒",
        -9.576482773005486
      ],
      [
        "解",
        -9.57703977011264
      ],
      [
        "温存",
        -9.577056430156572
      ],
      [
        "はない。",
        -9.577225346042033
      ],
      [
        "専門医",
        -9.577942183603962
      ],
      [
        "さまざまな",
        -9.580099161434363
      ],
      [
        "交換",
        -9.580127928314958
      ],
      [
        "軽度の",
        -9.58014105402391
      ],
      [
        "ＭＴ",
        -9.580243635259809
      ],
      [
        "▁Ｈ",
        -9.580959456878372
      ],
      [
        "ＩｇＧ",
        -9.581465543610618
      ],
      [
        "断裂",
        -9.581781304941584
      ],
      [
        "先",
        -9.58191765573367
      ],
      [
        "），４）",
        -9.58222182754728
      ],
      [
        "▁次いで，",
        -9.582254813665823
      ],
      [
        "間に",
        -9.582509085816016
      ],
      [
        "追加",
        -9.582674920094725
      ],
      [
        "同時に",
        -9.583110008476156
      ],
      [
        "回転",
        -9.583139142526411
      ],
      [
        "しやすい",
        -9.58387356716758
      ],
      [
        "分画",
        -9.584172869387872
      ],
      [
        "ば",
        -9.584219798563463
      ],
      [
        "縦隔",
        -9.584362922028102
      ],
      [
        "視力",
        -9.585325106240004
      ],
      [
        "法により",
        -9.586031270620143
      ],
      [
        "増大",
        -9.587110161900585
      ],
      [
        "理論",
        -9.587654868718223
      ],
      [
        "フィ",
        -9.5879266906441
      ],
      [
        "主な",
        -9.58854677937395
      ],
      [
        "ものである。",
        -9.588898564994595
      ],
      [
        "インフルエンザ",
        -9.58997810679278
      ],
      [
        "ｓｔ",
        -9.590203407313638
      ],
      [
        "に起因する",
        -9.590486492239409
      ],
      [
        "好中球",
        -9.590790196513009
      ],
      [
        "を伴った",
        -9.59129982321295
      ],
      [
        "意義",
        -9.591479276230976
      ],
      [
        "ＴＡ",
        -9.59244683554457
      ],
      [
        "▁その後",
        -9.593016474486047
      ],
      [
        "ドレナージ",
        -9.593998978803612
      ],
      [
        "ごとに",
        -9.594847827829923
      ],
      [
        "萎縮",
        -9.595187783881586
      ],
      [
        "梗塞",
        -9.595216751786468
      ],
      [
        "胸",
        -9.595346507743669
      ],
      [
        "変更",
        -9.595550799988477
      ],
      [
        "産",
        -9.595561080093333
      ],
      [
        "尿道",
        -9.595999159384611
      ],
      [
        "ピーク",
        -9.596384525514384
      ],
      [
        "開",
        -9.598077056516573
      ],
      [
        "徐々に",
        -9.59818457533227
      ],
      [
        "ｉｌ",
        -9.598296389632187
      ],
      [
        "か，",
        -9.598297583681
      ],
      [
        "筋肉",
        -9.598580090871948
      ],
      [
        "野",
        -9.598651514205695
      ],
      [
        "ろう",
        -9.598748382352849
      ],
      [
        "要",
        -9.599293904892694
      ],
      [
        "機関",
        -9.599633946438235
      ],
      [
        "うち",
        -9.599883769485633
      ],
      [
        "効率",
        -9.60042554630458
      ],
      [
        "ドナー",
        -9.600663336644256
      ],
      [
        "ブロック",
        -9.600787498875786
      ],
      [
        "腫ようの",
        -9.601320269418604
      ],
      [
        "っ",
        -9.602122012958423
      ],
      [
        "れる",
        -9.602342131693304
      ],
      [
        "かどうか",
        -9.603059318238495
      ],
      [
        "とともに，",
        -9.603233748907954
      ],
      [
        "自覚症状",
        -9.603311161812057
      ],
      [
        "」，「",
        -9.604013191168658
      ],
      [
        "▁【結論】",
        -9.604023428948098
      ],
      [
        "の併用",
        -9.604186237847218
      ],
      [
        "意味",
        -9.605296969658855
      ],
      [
        "リハビリ",
        -9.605653901980624
      ],
      [
        "帯",
        -9.60579572184105
      ],
      [
        "両者",
        -9.605888467196184
      ],
      [
        "▁ｖｉｔｒｏ",
        -9.606129902793208
      ],
      [
        "秒",
        -9.606229049722453
      ],
      [
        "の概念",
        -9.60642981678674
      ],
      [
        "目的で",
        -9.606607902438212
      ],
      [
        "内科",
        -9.606630349293876
      ],
      [
        "ガ",
        -9.606863839688558
      ],
      [
        "それぞれの",
        -9.606872602205826
      ],
      [
        "診",
        -9.607081422055302
      ],
      [
        "マウスの",
        -9.60743042257419
      ],
      [
        "突然変異",
        -9.607594889898852
      ],
      [
        "検証",
        -9.607649107622784
      ],
      [
        "最",
        -9.607926448018096
      ],
      [
        "よい",
        -9.608626763594431
      ],
      [
        "３か月",
        -9.609978919553736
      ],
      [
        "▁Ｆ",
        -9.61024049169176
      ],
      [
        "混合",
        -9.610396255511487
      ],
      [
        "ＰＥＴ",
        -9.610788902513722
      ],
      [
        "ｓｅ",
        -9.610893032322956
      ],
      [
        "軽減",
        -9.611251659530394
      ],
      [
        "腹腔鏡下",
        -9.61147462896886
      ],
      [
        "金",
        -9.611530015452232
      ],
      [
        "３８",
        -9.612211337317222
      ],
      [
        "児の",
        -9.612608793550882
      ],
      [
        "は正常",
        -9.612893285864818
      ],
      [
        "は，１）",
        -9.613112216019893
      ],
      [
        "明らかに",
        -9.61311676402557
      ],
      [
        "強化",
        -9.613119107774413
      ],
      [
        "重篤な",
        -9.613278192940449
      ],
      [
        "血管造影",
        -9.613747723916353
      ],
      [
        "に分けて",
        -9.61400148261938
      ],
      [
        "定量",
        -9.614478461882506
      ],
      [
        "工夫",
        -9.614723859841057
      ],
      [
        "の種類",
        -9.614844789022428
      ],
      [
        "に関して，",
        -9.614970502751047
      ],
      [
        "その後",
        -9.615471621601504
      ],
      [
        "増悪",
        -9.615709208211578
      ],
      [
        "症，",
        -9.616047961513912
      ],
      [
        "，左",
        -9.61650122697584
      ],
      [
        "％",
        -9.616638786319973
      ],
      [
        "ｌｉ",
        -9.617454918827772
      ],
      [
        "ＨＩＶ",
        -9.618031500948115
      ],
      [
        "希望",
        -9.6192463852523
      ],
      [
        "寛解",
        -9.621388165949346
      ],
      [
        "人口",
        -9.621514283978843
      ],
      [
        "板",
        -9.621833207488889
      ],
      [
        "方式",
        -9.621932640219928
      ],
      [
        "ショック",
        -9.622376722490367
      ],
      [
        "以降",
        -9.62258859071532
      ],
      [
        "４５",
        -9.622706517996232
      ],
      [
        "ＣＬ",
        -9.623339547308992
      ],
      [
        "データベース",
        -9.623419155231902
      ],
      [
        "角度",
        -9.623472311233655
      ],
      [
        "次",
        -9.623919497882198
      ],
      [
        "が得られた。",
        -9.624237577223044
      ],
      [
        "腎機能",
        -9.625121327504676
      ],
      [
        "従来",
        -9.625531333618364
      ],
      [
        "が見られた。",
        -9.625589349772673
      ],
      [
        "第３",
        -9.626082879320927
      ],
      [
        "問診",
        -9.62743100376384
      ],
      [
        "視覚",
        -9.627458950137672
      ],
      [
        "湯",
        -9.62746452059918
      ],
      [
        "表現",
        -9.627544914378918
      ],
      [
        "組織の",
        -9.627738303416304
      ],
      [
        "最終",
        -9.628588843460491
      ],
      [
        "動態",
        -9.628721044057505
      ],
      [
        "適",
        -9.629146793741135
      ],
      [
        "マイクロ",
        -9.629770364306628
      ],
      [
        "ＥＣ",
        -9.629990466421985
      ],
      [
        "ｉｓ",
        -9.630407627352351
      ],
      [
        "なる",
        -9.630913103141104
      ],
      [
        "加",
        -9.631150320546016
      ],
      [
        "場所",
        -9.631764639733612
      ],
      [
        "悪性腫瘍",
        -9.63197798067129
      ],
      [
        "血腫",
        -9.632429546358974
      ],
      [
        "ＡＳ",
        -9.6325203005049
      ],
      [
        "臨床的に",
        -9.632570158302636
      ],
      [
        "記憶",
        -9.632877497468892
      ],
      [
        "検査法",
        -9.633037507753318
      ],
      [
        "通常",
        -9.633427275997157
      ],
      [
        "尺度",
        -9.633553231286374
      ],
      [
        "▁これは",
        -9.633650487995729
      ],
      [
        "員",
        -9.634347494319629
      ],
      [
        "けん",
        -9.634395653278869
      ],
      [
        "根",
        -9.634821100000211
      ],
      [
        "同時",
        -9.63562207465843
      ],
      [
        "食道癌",
        -9.635697546547616
      ],
      [
        "ＰＲ",
        -9.635736729093017
      ],
      [
        "皮疹",
        -9.63574359559412
      ],
      [
        "上顎",
        -9.636508892597265
      ],
      [
        "ず",
        -9.636678949372245
      ],
      [
        "の基本",
        -9.637022877014408
      ],
      [
        "異物",
        -9.637266679922616
      ],
      [
        "シート",
        -9.637841240292545
      ],
      [
        "法と",
        -9.63789328435118
      ],
      [
        "▁手術",
        -9.637928459112226
      ],
      [
        "（男性",
        -9.637983676289752
      ],
      [
        "イメージ",
        -9.639056942393731
      ],
      [
        "ＢＰ",
        -9.639141852101858
      ],
      [
        "ＳＤ",
        -9.639464719219095
      ],
      [
        "ことから",
        -9.63968622938642
      ],
      [
        "心筋梗塞",
        -9.6398686741777
      ],
      [
        "に存在する",
        -9.640502529326334
      ],
      [
        "チン",
        -9.641024003141355
      ],
      [
        "協力",
        -9.641288517634026
      ],
      [
        "形成術",
        -9.64143405719354
      ],
      [
        "▁次に",
        -9.642090808493087
      ],
      [
        "を確認",
        -9.643148547604309
      ],
      [
        "多発性",
        -9.643981837660148
      ],
      [
        "小脳",
        -9.644075710648236
      ],
      [
        "ではなく，",
        -9.644696035853764
      ],
      [
        "排せつ",
        -9.644821971274204
      ],
      [
        "心理",
        -9.64493388410595
      ],
      [
        "毒",
        -9.64546813392466
      ],
      [
        "▁Ｏ",
        -9.645720211013428
      ],
      [
        "機能的",
        -9.645734974696715
      ],
      [
        "嚢",
        -9.64623406511936
      ],
      [
        "敗血症",
        -9.646488071367326
      ],
      [
        "の比較",
        -9.647189411842763
      ],
      [
        "させた。",
        -9.647278131105256
      ],
      [
        "静注",
        -9.647646376958306
      ],
      [
        "自立",
        -9.647708166612391
      ],
      [
        "，ｃ）",
        -9.647709735541728
      ],
      [
        "ＳＣ",
        -9.647884673945708
      ],
      [
        "検査で",
        -9.647894517846272
      ],
      [
        "下に",
        -9.648664368048111
      ],
      [
        "女",
        -9.649279622586931
      ],
      [
        "遺伝子発現",
        -9.64932934687661
      ],
      [
        "ＩＣ",
        -9.64946204272041
      ],
      [
        "全例",
        -9.64990612361206
      ],
      [
        "保持",
        -9.650069807852876
      ],
      [
        "明",
        -9.650351361518938
      ],
      [
        "日本の",
        -9.65059608070115
      ],
      [
        "家族の",
        -9.650755696015894
      ],
      [
        "乳",
        -9.651680104613792
      ],
      [
        "副腎",
        -9.652151608694744
      ],
      [
        "を通して",
        -9.652414672775537
      ],
      [
        "ことが示された。",
        -9.65244802913849
      ],
      [
        "難治性",
        -9.65254036756026
      ],
      [
        "辺縁",
        -9.65316366413361
      ],
      [
        "について概説",
        -9.65382044820239
      ],
      [
        "ＣＣ",
        -9.653928687406909
      ],
      [
        "質問",
        -9.654038108062858
      ],
      [
        "良い",
        -9.65537903814525
      ],
      [
        "などで",
        -9.655452759699989
      ],
      [
        "が高く，",
        -9.65603682656666
      ],
      [
        "深部",
        -9.656816563430729
      ],
      [
        "個別",
        -9.656917534754644
      ],
      [
        "たい",
        -9.657428403977825
      ],
      [
        "徴候",
        -9.657724885236622
      ],
      [
        "実",
        -9.657811576653884
      ],
      [
        "もしくは",
        -9.65805665389167
      ],
      [
        "６か月",
        -9.658246270214237
      ],
      [
        "ａｃ",
        -9.658266621771258
      ],
      [
        "など，",
        -9.658967524131718
      ],
      [
        "シミュレーション",
        -9.659558348201374
      ],
      [
        "粒子",
        -9.659773351375536
      ],
      [
        "を中心とした",
        -9.660609163732468
      ],
      [
        "ｅｔ",
        -9.66065206490441
      ],
      [
        "の大きさ",
        -9.66075335564172
      ],
      [
        "ＰＣＲ",
        -9.660789529044436
      ],
      [
        "認めた。",
        -9.661010159950756
      ],
      [
        "系の",
        -9.661143437267944
      ],
      [
        "減",
        -9.661225545568549
      ],
      [
        "脚",
        -9.661339931305982
      ],
      [
        "それらの",
        -9.661480829294923
      ],
      [
        "山",
        -9.662533975872568
      ],
      [
        "子ども",
        -9.663204758356434
      ],
      [
        "３６",
        -9.664207226883228
      ],
      [
        "多数の",
        -9.666076028111412
      ],
      [
        "記載",
        -9.66658499344868
      ],
      [
        "年間",
        -9.666656132734037
      ],
      [
        "失",
        -9.66693863576072
      ],
      [
        "場合には",
        -9.66764117625679
      ],
      [
        "ものは",
        -9.66810919577998
      ],
      [
        "を確認した",
        -9.668246938688624
      ],
      [
        "電子",
        -9.668662191640593
      ],
      [
        "はい",
        -9.668806521689882
      ],
      [
        "の経過",
        -9.668902133145272
      ],
      [
        "０．０",
        -9.668902465525072
      ],
      [
        "の実態",
        -9.669559469382513
      ],
      [
        "▁症例２は",
        -9.669634408005006
      ],
      [
        "路",
        -9.669743905285362
      ],
      [
        "イメージング",
        -9.669989706908837
      ],
      [
        "語",
        -9.669990535826898
      ],
      [
        "ことである。",
        -9.670507247228322
      ],
      [
        "手段",
        -9.6713812760533
      ],
      [
        "ｋｇ",
        -9.671521652960342
      ],
      [
        "させ",
        -9.672085588983196
      ],
      [
        "不明",
        -9.672466314751732
      ],
      [
        "肝細胞",
        -9.672639060196106
      ],
      [
        "の各",
        -9.67287298937557
      ],
      [
        "アンケート調査",
        -9.673204918636452
      ],
      [
        "解決",
        -9.673377554988573
      ],
      [
        "病期",
        -9.674102331053035
      ],
      [
        "ハ",
        -9.675568996978422
      ],
      [
        "横",
        -9.675609472476507
      ],
      [
        "しても",
        -9.676542278125304
      ],
      [
        "▁そして",
        -9.676995834492878
      ],
      [
        "知見",
        -9.677419801283037
      ],
      [
        "統合",
        -9.677727215187092
      ],
      [
        "→",
        -9.67775308698395
      ],
      [
        "骨粗鬆症",
        -9.67794110404976
      ],
      [
        "インシュリン",
        -9.678132384404709
      ],
      [
        "転移性",
        -9.67880931761052
      ],
      [
        "ｉｄ",
        -9.67911065710725
      ],
      [
        "どのような",
        -9.679324660098192
      ],
      [
        "リンパ",
        -9.679330857906796
      ],
      [
        "ち",
        -9.679597239195148
      ],
      [
        "の一部",
        -9.679670265919334
      ],
      [
        "切",
        -9.679955898014969
      ],
      [
        "重要である。",
        -9.680223781584678
      ],
      [
        "１２例",
        -9.680620366516598
      ],
      [
        "ギ",
        -9.68093320433528
      ],
      [
        "平均年齢",
        -9.68179369390086
      ],
      [
        "と比較した",
        -9.68211210310725
      ],
      [
        "２週間",
        -9.682274082629435
      ],
      [
        "被験者",
        -9.682405969309244
      ],
      [
        "もある。",
        -9.682531039823546
      ],
      [
        "の概要",
        -9.682601769668834
      ],
      [
        "１１例",
        -9.683224932465189
      ],
      [
        "バー",
        -9.683441705820494
      ],
      [
        "すべて",
        -9.684077489738227
      ],
      [
        "頚椎",
        -9.684867179942252
      ],
      [
        "▁その後，",
        -9.684950168211936
      ],
      [
        "搬送",
        -9.685613699459813
      ],
      [
        "の分類",
        -9.68567206952664
      ],
      [
        "２０例",
        -9.685855779505792
      ],
      [
        "中間",
        -9.68640649271427
      ],
      [
        "チェック",
        -9.686519021532431
      ],
      [
        "石",
        -9.68717250030851
      ],
      [
        "を起こす",
        -9.687423457431514
      ],
      [
        "日本人",
        -9.68767229553412
      ],
      [
        "生活習慣",
        -9.68778689605662
      ],
      [
        "理学療法",
        -9.687995112483216
      ],
      [
        "介助",
        -9.689150837790724
      ],
      [
        "県",
        -9.689247411051396
      ],
      [
        "欠失",
        -9.690019409414315
      ],
      [
        "提供",
        -9.690153969306886
      ],
      [
        "の障害",
        -9.690223740034805
      ],
      [
        "が大きい",
        -9.690275223325497
      ],
      [
        "反復",
        -9.69054646981616
      ],
      [
        "腹水",
        -9.691122635427616
      ],
      [
        "するために",
        -9.691235553289024
      ],
      [
        "ことで",
        -9.691403181027548
      ],
      [
        "好",
        -9.691519198738415
      ],
      [
        "左右",
        -9.691866724251213
      ],
      [
        "抵抗",
        -9.692175712944612
      ],
      [
        "有意差",
        -9.69337819369206
      ],
      [
        "共通",
        -9.693517734801574
      ],
      [
        "ラットの",
        -9.693675459636149
      ],
      [
        "する方法",
        -9.693763815326529
      ],
      [
        "炎症性",
        -9.693805656336464
      ],
      [
        "に応じた",
        -9.693808586116209
      ],
      [
        "アルブミン",
        -9.69392550986134
      ],
      [
        "ＭＲＳＡ",
        -9.69394025806269
      ],
      [
        "全身状態",
        -9.69423555022837
      ],
      [
        "生物",
        -9.69458434307935
      ],
      [
        "を対象とし，",
        -9.694785606470992
      ],
      [
        "終了",
        -9.694931711729971
      ],
      [
        "修飾",
        -9.69494586022039
      ],
      [
        "ために，",
        -9.69505734756381
      ],
      [
        "の確認",
        -9.695075927648038
      ],
      [
        "１０％",
        -9.695337218135183
      ],
      [
        "電極",
        -9.696630520712226
      ],
      [
        "福祉",
        -9.696652377723405
      ],
      [
        "電",
        -9.697091852425222
      ],
      [
        "上皮細胞",
        -9.69712354686272
      ],
      [
        "血糖",
        -9.697154644433164
      ],
      [
        "職員",
        -9.697627053890049
      ],
      [
        "塞栓",
        -9.69771716402385
      ],
      [
        "膝関節",
        -9.697866279759294
      ],
      [
        "を評価する",
        -9.69836841758115
      ],
      [
        "ｕｒ",
        -9.698636349885472
      ],
      [
        "電気",
        -9.699475135552346
      ],
      [
        "α‐",
        -9.69950488278939
      ],
      [
        "キシ",
        -9.70013252629268
      ],
      [
        "減少した",
        -9.70050947310228
      ],
      [
        "細胞は",
        -9.700585506479086
      ],
      [
        "した．",
        -9.70116266297598
      ],
      [
        "増幅",
        -9.70138845355575
      ],
      [
        "３２",
        -9.701958762323962
      ],
      [
        "されており，",
        -9.702704794311105
      ],
      [
        "単一",
        -9.702831061268007
      ],
      [
        "，Ｉ",
        -9.702987864503768
      ],
      [
        "前後の",
        -9.70355753887852
      ],
      [
        "頸部",
        -9.703774613002263
      ],
      [
        "７名",
        -9.704488715793277
      ],
      [
        "冠",
        -9.7046009304042
      ],
      [
        "乳腺",
        -9.704815401107254
      ],
      [
        "１３例",
        -9.70548700630504
      ],
      [
        "提示",
        -9.706311256503058
      ],
      [
        "支持",
        -9.70703351750226
      ],
      [
        "ＭＡ",
        -9.707168892314446
      ],
      [
        "しい",
        -9.708177612367418
      ],
      [
        "乳児",
        -9.708497790224037
      ],
      [
        "８名",
        -9.708511976677451
      ],
      [
        "選択的",
        -9.708889905960936
      ],
      [
        "肥大",
        -9.708943608668896
      ],
      [
        "服用",
        -9.708949616995447
      ],
      [
        "空間",
        -9.70970529383916
      ],
      [
        "陰影",
        -9.710064002008195
      ],
      [
        "ａｎｄ",
        -9.710757364274894
      ],
      [
        "，治療",
        -9.71147201687798
      ],
      [
        "ＰＯ",
        -9.711990060835822
      ],
      [
        "例の",
        -9.712235691619044
      ],
      [
        "１５例",
        -9.712736744016604
      ],
      [
        "面接",
        -9.71334727121216
      ],
      [
        "有害事象",
        -9.713941123224703
      ],
      [
        "今回",
        -9.714030944866872
      ],
      [
        "を解説",
        -9.714165312397284
      ],
      [
        "せん",
        -9.71417140230844
      ],
      [
        "の成績",
        -9.714223574386866
      ],
      [
        "プローブ",
        -9.714412398794591
      ],
      [
        "整復",
        -9.71442722820044
      ],
      [
        "ほとんど",
        -9.714581278791483
      ],
      [
        "広",
        -9.71581298579453
      ],
      [
        "特発性",
        -9.716192018075152
      ],
      [
        "女子",
        -9.716462878154855
      ],
      [
        "プロセス",
        -9.716837807856333
      ],
      [
        "があり",
        -9.71721814356883
      ],
      [
        "身体的",
        -9.717262444891054
      ],
      [
        "遺伝",
        -9.717656411257456
      ],
      [
        "来",
        -9.718080045980628
      ],
      [
        "び",
        -9.718138707979149
      ],
      [
        "▁小児",
        -9.718367680453303
      ],
      [
        "流行",
        -9.718482832745664
      ],
      [
        "症状が",
        -9.718492446879914
      ],
      [
        "多く",
        -9.719349695781023
      ],
      [
        "積極的に",
        -9.719413703392314
      ],
      [
        "ＵＳ",
        -9.719806391941894
      ],
      [
        "の方法",
        -9.72076369024341
      ],
      [
        "１．５",
        -9.720793970355858
      ],
      [
        "ディ",
        -9.72101891601306
      ],
      [
        "５％",
        -9.721211748085327
      ],
      [
        "共",
        -9.721336797734583
      ],
      [
        "える",
        -9.721402474276074
      ],
      [
        "材",
        -9.721546922157795
      ],
      [
        "検査所見",
        -9.721719193924116
      ],
      [
        "排尿",
        -9.721740741964672
      ],
      [
        "遺伝子変異",
        -9.72256685932514
      ],
      [
        "度の",
        -9.72264744671872
      ],
      [
        "時には",
        -9.722793281423913
      ],
      [
        "節",
        -9.723284227262
      ],
      [
        "認められた。",
        -9.723291648636469
      ],
      [
        "万",
        -9.72337574847606
      ],
      [
        "の管理",
        -9.723430455519694
      ],
      [
        "▁糖尿病",
        -9.72358016180704
      ],
      [
        "割",
        -9.724108471549776
      ],
      [
        "異",
        -9.72417884223666
      ],
      [
        "，Ｃ",
        -9.72495787287306
      ],
      [
        "４か月",
        -9.726133492442925
      ],
      [
        "近",
        -9.726155611708394
      ],
      [
        "解剖学的",
        -9.726559358216502
      ],
      [
        "モニター",
        -9.726586666707778
      ],
      [
        "悪性リンパ腫",
        -9.726739963914987
      ],
      [
        "の観点から",
        -9.727570085481938
      ],
      [
        "があった",
        -9.728203262268725
      ],
      [
        "いる",
        -9.728223213495037
      ],
      [
        "▁５）",
        -9.72884106527696
      ],
      [
        "病変の",
        -9.729107409371704
      ],
      [
        "と同様に",
        -9.7294366324508
      ],
      [
        "心拍数",
        -9.729456196625843
      ],
      [
        "に関しては，",
        -9.729902380658045
      ],
      [
        "健常",
        -9.730155936491078
      ],
      [
        "，右",
        -9.73070897420994
      ],
      [
        "の症例",
        -9.7307196120866
      ],
      [
        "ＡＣ",
        -9.731277165845256
      ],
      [
        "諸",
        -9.731622616660715
      ],
      [
        "キナーゼ",
        -9.732368141794872
      ],
      [
        "の導入",
        -9.732893322024204
      ],
      [
        "医薬品",
        -9.733002774259605
      ],
      [
        "密度",
        -9.733099173024948
      ],
      [
        "に伴い",
        -9.733225931836508
      ],
      [
        "血管新生",
        -9.733259423726434
      ],
      [
        "付け",
        -9.733280600383504
      ],
      [
        "３７",
        -9.733775404631809
      ],
      [
        "を合併した",
        -9.7343945666575
      ],
      [
        "強",
        -9.734632755682023
      ],
      [
        "を受け",
        -9.73494582911582
      ],
      [
        "レン",
        -9.735234606340915
      ],
      [
        "抵抗性",
        -9.735322604685548
      ],
      [
        "遠位",
        -9.735669865671964
      ],
      [
        "後期",
        -9.735819197384773
      ],
      [
        "欠乏",
        -9.73623067886806
      ],
      [
        "ｅｎｔ",
        -9.737932137080954
      ],
      [
        "間質",
        -9.738600622110756
      ],
      [
        "ｏｓ",
        -9.738874344257862
      ],
      [
        "構築",
        -9.739711576586153
      ],
      [
        "肝癌",
        -9.739879789317966
      ],
      [
        "法（",
        -9.739881278377265
      ],
      [
        "術を施行した",
        -9.740381621197368
      ],
      [
        "展開",
        -9.740392199007356
      ],
      [
        "補正",
        -9.740587231670162
      ],
      [
        "べ",
        -9.740717780327138
      ],
      [
        "精査",
        -9.740831014562136
      ],
      [
        "基質",
        -9.740964548874386
      ],
      [
        "ＰＭ",
        -9.740993507526465
      ],
      [
        "良く",
        -9.741228618314487
      ],
      [
        "獲得",
        -9.742317841765493
      ],
      [
        "輸送",
        -9.742602472261352
      ],
      [
        "説",
        -9.743042098702208
      ],
      [
        "周辺",
        -9.743775022447602
      ],
      [
        "胎盤",
        -9.745286273203558
      ],
      [
        "の鑑別",
        -9.745745900449789
      ],
      [
        "曲線",
        -9.745749931184903
      ],
      [
        "に有用である",
        -9.74646026903873
      ],
      [
        "リー",
        -9.74661666861839
      ],
      [
        "２回",
        -9.74689521247481
      ],
      [
        "っている",
        -9.747068415892349
      ],
      [
        "抗生物質",
        -9.747429847988885
      ],
      [
        "４）",
        -9.747819835223826
      ],
      [
        "義歯",
        -9.74809222441854
      ],
      [
        "▁ｖｉｖｏ",
        -9.748093759084092
      ],
      [
        "責任",
        -9.748396771169512
      ],
      [
        "精巣",
        -9.749277787422484
      ],
      [
        "けいれん",
        -9.749400547453988
      ],
      [
        "児童",
        -9.749762200793642
      ],
      [
        "患者で",
        -9.75000113564192
      ],
      [
        "ＰＩ",
        -9.75075394838591
      ],
      [
        "患者に対する",
        -9.751609863986076
      ],
      [
        "いくつかの",
        -9.751877542089144
      ],
      [
        "別の",
        -9.75218995472413
      ],
      [
        "肺動脈",
        -9.752203088491454
      ],
      [
        "の観察",
        -9.752909870630862
      ],
      [
        "１．０",
        -9.752967567212195
      ],
      [
        "検査，",
        -9.75320281323994
      ],
      [
        "１４例",
        -9.753290682115022
      ],
      [
        "マン",
        -9.753503644809191
      ],
      [
        "の位置",
        -9.753668373886242
      ],
      [
        "（Ｖ",
        -9.753681852323478
      ],
      [
        "種類",
        -9.75391468576251
      ],
      [
        "源",
        -9.753925640871625
      ],
      [
        "▁Ｌ",
        -9.756010340646196
      ],
      [
        "具体的な",
        -9.756088456435087
      ],
      [
        "心房",
        -9.756132407325836
      ],
      [
        "に及ぼす影響",
        -9.756761067628414
      ],
      [
        "の内容",
        -9.757196992981584
      ],
      [
        "顎",
        -9.75749604484506
      ],
      [
        "▁現在",
        -9.757627607008214
      ],
      [
        "側の",
        -9.757830024932163
      ],
      [
        "色素",
        -9.75862206194922
      ],
      [
        "末梢血",
        -9.759078396089851
      ],
      [
        "ｉａ",
        -9.7591228136442
      ],
      [
        "微生物",
        -9.75920301149755
      ],
      [
        "じん",
        -9.759524748302898
      ],
      [
        "に基づいて",
        -9.75987868748765
      ],
      [
        "線維化",
        -9.760147654335633
      ],
      [
        "適用",
        -9.760192365137131
      ],
      [
        "（３",
        -9.760847804695878
      ],
      [
        "行った",
        -9.76107114737922
      ],
      [
        "緊張",
        -9.761238849869358
      ],
      [
        "可能性がある",
        -9.761338450686724
      ],
      [
        "の差",
        -9.761462386378534
      ],
      [
        "していない",
        -9.76199714415727
      ],
      [
        "減量",
        -9.762449355219577
      ],
      [
        "９名",
        -9.763007958493649
      ],
      [
        "成功",
        -9.763414591240974
      ],
      [
        "喉頭",
        -9.76418487119359
      ],
      [
        "外科的",
        -9.764498571945392
      ],
      [
        "代表的な",
        -9.76466073488468
      ],
      [
        "伝達",
        -9.764909481428036
      ],
      [
        "になった",
        -9.765528648849417
      ],
      [
        "（男",
        -9.7655908199833
      ],
      [
        "細胞を",
        -9.765619101541285
      ],
      [
        "荷重",
        -9.765734718731204
      ],
      [
        "ていた",
        -9.76593774857853
      ],
      [
        "クラス",
        -9.766082716717149
      ],
      [
        "解離",
        -9.766543000052778
      ],
      [
        "の抑制",
        -9.767438372183484
      ],
      [
        "思い",
        -9.767512452728887
      ],
      [
        "の変動",
        -9.76781810252672
      ],
      [
        "虐待",
        -9.768853074695285
      ],
      [
        "１００％",
        -9.769311862329952
      ],
      [
        "リハ",
        -9.769422030161447
      ],
      [
        "キット",
        -9.769450166562605
      ],
      [
        "取り",
        -9.76955396816558
      ],
      [
        "下垂体",
        -9.769611269543352
      ],
      [
        "法は",
        -9.770271708651476
      ],
      [
        "男性の",
        -9.770367272873594
      ],
      [
        "が疑われた",
        -9.770700727881104
      ],
      [
        "ファ",
        -9.770755799444588
      ],
      [
        "集",
        -9.770963405038186
      ],
      [
        "‐３",
        -9.771100903462289
      ],
      [
        "アン",
        -9.771417990463268
      ],
      [
        "亢進",
        -9.771423358911257
      ],
      [
        "災害",
        -9.771516779477317
      ],
      [
        "が得られる",
        -9.771745707824936
      ],
      [
        "患児",
        -9.771993304996055
      ],
      [
        "Ｉは",
        -9.772474742182148
      ],
      [
        "対象者",
        -9.773029747033984
      ],
      [
        "▁Ｅ",
        -9.773575693949187
      ],
      [
        "の形成",
        -9.773599294561857
      ],
      [
        "３例，",
        -9.773703530618963
      ],
      [
        "の平均",
        -9.77447908934537
      ],
      [
        "ＭＰ",
        -9.77460203374842
      ],
      [
        "足関節",
        -9.774721492614328
      ],
      [
        "コース",
        -9.77524852865012
      ],
      [
        "生理的",
        -9.775352403232588
      ],
      [
        "長い",
        -9.775656265395217
      ],
      [
        "を対象として，",
        -9.776538351958507
      ],
      [
        "々",
        -9.77704104700411
      ],
      [
        "ＴＳ",
        -9.777115379714775
      ],
      [
        "パス",
        -9.777319485885794
      ],
      [
        "（Ｉ）の",
        -9.77794901866006
      ],
      [
        "療養",
        -9.778114661402412
      ],
      [
        "出産",
        -9.778433672258494
      ],
      [
        "機",
        -9.779081886350372
      ],
      [
        "の一",
        -9.77953560159123
      ],
      [
        "との間に",
        -9.779555193786958
      ],
      [
        "今後の課題",
        -9.780414462062314
      ],
      [
        "思春期",
        -9.780487506327407
      ],
      [
        "ホ",
        -9.78058683631921
      ],
      [
        "高く，",
        -9.78074919999127
      ],
      [
        "ＴＣ",
        -9.780808940120732
      ],
      [
        "説明した",
        -9.781555186218275
      ],
      [
        "ことが明らかになった",
        -9.781570106333024
      ],
      [
        "につながる",
        -9.782039247901434
      ],
      [
        "３９",
        -9.782321073228452
      ],
      [
        "付着",
        -9.782647830536376
      ],
      [
        "経皮的",
        -9.782719879506242
      ],
      [
        "，男性",
        -9.782839796208672
      ],
      [
        "排泄",
        -9.783827903778509
      ],
      [
        "ズ",
        -9.78433777719966
      ],
      [
        "ロー",
        -9.784576275430489
      ],
      [
        "ＰＧ",
        -9.785099811280498
      ],
      [
        "場合には，",
        -9.785152981659971
      ],
      [
        "期の",
        -9.785273495977322
      ],
      [
        "心室",
        -9.785552556559225
      ],
      [
        "脳血管障害",
        -9.785567452784967
      ],
      [
        "基礎疾患",
        -9.785578758105414
      ],
      [
        "器具",
        -9.785869514124888
      ],
      [
        "を行っている。",
        -9.78596129709725
      ],
      [
        "ヘルニア",
        -9.78631237409599
      ],
      [
        "設計",
        -9.786472178998965
      ],
      [
        "体内",
        -9.786477967283364
      ],
      [
        "との鑑別",
        -9.787199858530196
      ],
      [
        "知覚",
        -9.78772585147021
      ],
      [
        "なく，",
        -9.787843204371333
      ],
      [
        "縮小",
        -9.78886138795072
      ],
      [
        "の一つ",
        -9.78892268678519
      ],
      [
        "転写",
        -9.78908616370945
      ],
      [
        "加齢",
        -9.78918454480976
      ],
      [
        "知",
        -9.78924452240649
      ],
      [
        "４～",
        -9.789352857478852
      ],
      [
        "ｕｌ",
        -9.789482349119313
      ],
      [
        "４年",
        -9.789643071733046
      ],
      [
        "を利用した",
        -9.789807781122958
      ],
      [
        "喘息",
        -9.789944920624723
      ],
      [
        "はそれぞれ",
        -9.78994925526922
      ],
      [
        "精神的",
        -9.790272286294895
      ],
      [
        "禁煙",
        -9.791034270847584
      ],
      [
        "の構造",
        -9.791153208105984
      ],
      [
        "▁Ｉは",
        -9.791434856859352
      ],
      [
        "老化",
        -9.791554741624486
      ],
      [
        "細胞増殖",
        -9.79156192951498
      ],
      [
        "ＯＳ",
        -9.791652510837183
      ],
      [
        "することにより",
        -9.791793249294928
      ],
      [
        "場合は，",
        -9.791906045720925
      ],
      [
        "宿主",
        -9.791964044383144
      ],
      [
        "強く",
        -9.792201149971596
      ],
      [
        "の臨床",
        -9.792420054578692
      ],
      [
        "法の",
        -9.792831844470502
      ],
      [
        "２．５",
        -9.793149874734532
      ],
      [
        "副",
        -9.794119942350004
      ],
      [
        "▁本研究では，",
        -9.79432072089904
      ],
      [
        "病型",
        -9.794556194573136
      ],
      [
        "設置",
        -9.794859592057009
      ],
      [
        "との連携",
        -9.79498760451609
      ],
      [
        "」が",
        -9.795011639051712
      ],
      [
        "近年",
        -9.795294434606571
      ],
      [
        "を抑制する",
        -9.795431615715096
      ],
      [
        "制",
        -9.79549968801447
      ],
      [
        "品",
        -9.79551651393609
      ],
      [
        "▁各",
        -9.796089092809902
      ],
      [
        "例で",
        -9.796116434103697
      ],
      [
        "バイオ",
        -9.79638294814983
      ],
      [
        "はほとんど",
        -9.7977248125375
      ],
      [
        "ポリープ",
        -9.797743156955375
      ],
      [
        "▁このような",
        -9.7983281265684
      ],
      [
        "，Ｐ",
        -9.798334981400748
      ],
      [
        "プラーク",
        -9.799166864485548
      ],
      [
        "など）",
        -9.799881732017363
      ],
      [
        "活性は",
        -9.80011027562251
      ],
      [
        "性別",
        -9.800428330170604
      ],
      [
        "アル",
        -9.801341523608324
      ],
      [
        "▁ＩＩ",
        -9.80197665231327
      ],
      [
        "スペクトル",
        -9.802058084315
      ],
      [
        "月",
        -9.80225779770901
      ],
      [
        "摘出術",
        -9.802820471196595
      ],
      [
        "の男性",
        -9.80284407685236
      ],
      [
        "１人",
        -9.80285410454398
      ],
      [
        "利用者",
        -9.802949077495416
      ],
      [
        "大量",
        -9.80307617146595
      ],
      [
        "優れた",
        -9.803481329191085
      ],
      [
        "ａｓｅ",
        -9.804440943462708
      ],
      [
        "停止",
        -9.80474901520713
      ],
      [
        "ｅｘ",
        -9.804854691367602
      ],
      [
        "骨密度",
        -9.80492732171708
      ],
      [
        "関節炎",
        -9.805113871050876
      ],
      [
        "加療",
        -9.805823425117405
      ],
      [
        "を測定し，",
        -9.805847378624769
      ],
      [
        "各々",
        -9.806044003426646
      ],
      [
        "が有意に",
        -9.806194602584316
      ],
      [
        "ＡＩ",
        -9.80621685418286
      ],
      [
        "塩",
        -9.807376334811776
      ],
      [
        "０．２",
        -9.807471637874585
      ],
      [
        "の理解",
        -9.807653220360262
      ],
      [
        "が必要な",
        -9.808055313014355
      ],
      [
        "硬化",
        -9.80822655865794
      ],
      [
        "について紹介した",
        -9.808391102496772
      ],
      [
        "上肢",
        -9.808518259638106
      ],
      [
        "空気",
        -9.809292204998016
      ],
      [
        "▁両",
        -9.809295387760168
      ],
      [
        "ではない",
        -9.80974417092034
      ],
      [
        "個々の",
        -9.809855620026628
      ],
      [
        "，抗",
        -9.81000194885445
      ],
      [
        "上に",
        -9.81071722044708
      ],
      [
        "をきたす",
        -9.810923022785282
      ],
      [
        "修正",
        -9.811189480734903
      ],
      [
        "円",
        -9.811553855840964
      ],
      [
        "呼吸困難",
        -9.811559621287351
      ],
      [
        "依頼",
        -9.811790874755603
      ],
      [
        "版",
        -9.81195622571289
      ],
      [
        "１６例",
        -9.81212617338184
      ],
      [
        "靭帯",
        -9.812145370985746
      ],
      [
        "に関し，",
        -9.812257136173985
      ],
      [
        "電位",
        -9.812262527748338
      ],
      [
        "が，その",
        -9.81322790807096
      ],
      [
        "食物",
        -9.813285187118112
      ],
      [
        "装具",
        -9.81390452864798
      ],
      [
        "定義",
        -9.813980803289423
      ],
      [
        "和",
        -9.814145448668276
      ],
      [
        "患者を",
        -9.81415139516442
      ],
      [
        "追跡",
        -9.814169185971982
      ],
      [
        "群）",
        -9.814335661019236
      ],
      [
        "ことを述べた",
        -9.814583493986673
      ],
      [
        "波形",
        -9.81459918875503
      ],
      [
        "ｔｏ",
        -9.814650968128024
      ],
      [
        "込み",
        -9.81466148280305
      ],
      [
        "入力",
        -9.81469030472443
      ],
      [
        "郭清",
        -9.814732701003544
      ],
      [
        "者が",
        -9.814753264036842
      ],
      [
        "情報を",
        -9.815224364555885
      ],
      [
        "看護婦",
        -9.81604256517902
      ],
      [
        "ても",
        -9.81614332609338
      ],
      [
        "時点で",
        -9.81661351047345
      ],
      [
        "患者と",
        -9.81720941530553
      ],
      [
        "があること",
        -9.81774739575613
      ],
      [
        "腹膜",
        -9.817944325247838
      ],
      [
        "排出",
        -9.817997487309093
      ],
      [
        "巣",
        -9.818057350801888
      ],
      [
        "メチル",
        -9.81819173853348
      ],
      [
        "科学",
        -9.818413241171596
      ],
      [
        "に及ぼす",
        -9.818746409203431
      ],
      [
        "腎不全",
        -9.819524139122644
      ],
      [
        "の作成",
        -9.819759800194106
      ],
      [
        "の取り組み",
        -9.819783092292338
      ],
      [
        "を認めたが，",
        -9.819822374194151
      ],
      [
        "上部",
        -9.8198277653018
      ],
      [
        "ｔｅｒ",
        -9.819918748859909
      ],
      [
        "摂取量",
        -9.819933851207022
      ],
      [
        "▁ここでは，",
        -9.820464809344006
      ],
      [
        "クローン",
        -9.820642298784174
      ],
      [
        "°",
        -9.820681228253685
      ],
      [
        "体温",
        -9.820741882144436
      ],
      [
        "の同定",
        -9.820954998780154
      ],
      [
        "消毒",
        -9.821188950543036
      ],
      [
        "ＨＰ",
        -9.821258169577616
      ],
      [
        "抜去",
        -9.821311323624228
      ],
      [
        "食事療法",
        -9.821867374361478
      ],
      [
        "トラブル",
        -9.822013817244022
      ],
      [
        "現場",
        -9.822155378270198
      ],
      [
        "潅流",
        -9.822171546692053
      ],
      [
        "どの",
        -9.82269637159016
      ],
      [
        "症例（",
        -9.822731394947208
      ],
      [
        "γ",
        -9.822824875232794
      ],
      [
        "ていく",
        -9.823116554212907
      ],
      [
        "臨床応用",
        -9.823290870203463
      ],
      [
        "量の",
        -9.824128387542425
      ],
      [
        "されること",
        -9.824517305974236
      ],
      [
        "ｅｓ",
        -9.824523112877458
      ],
      [
        "鑑別診断",
        -9.8246609293395
      ],
      [
        "Ｇｙ",
        -9.825046299608056
      ],
      [
        "糸球体",
        -9.825280286716142
      ],
      [
        "士",
        -9.82540983580284
      ],
      [
        "に応じて",
        -9.825420871899896
      ],
      [
        "て，",
        -9.825613147116703
      ],
      [
        "の解析",
        -9.825830648192284
      ],
      [
        "が必要となる",
        -9.826208528824314
      ],
      [
        "係数",
        -9.826584728284278
      ],
      [
        "開腹",
        -9.826797260225495
      ],
      [
        "解明",
        -9.82701544058866
      ],
      [
        "母体",
        -9.82711796406358
      ],
      [
        "ない。",
        -9.827633766330086
      ],
      [
        "高進",
        -9.82845610498344
      ],
      [
        "歯の",
        -9.82851498829682
      ],
      [
        "中で",
        -9.829269608409826
      ],
      [
        "が多い。",
        -9.829383110913026
      ],
      [
        "ｓｐ",
        -9.829950102373225
      ],
      [
        "ＳＰＥＣＴ",
        -9.829965949861164
      ],
      [
        "形状",
        -9.83020258131577
      ],
      [
        "抗癌剤",
        -9.830409233242374
      ],
      [
        "得点",
        -9.830761188584397
      ],
      [
        "椎体",
        -9.831223357212094
      ],
      [
        "の利用",
        -9.831366463001116
      ],
      [
        "▁日本",
        -9.831873251210368
      ],
      [
        "指示",
        -9.832207224680587
      ],
      [
        "は２",
        -9.83249231266963
      ],
      [
        "割合",
        -9.833097112042775
      ],
      [
        "になる。",
        -9.833553728695652
      ],
      [
        "身",
        -9.833714521104543
      ],
      [
        "せ",
        -9.834516299412536
      ],
      [
        "本人",
        -9.834621781020546
      ],
      [
        "自分の",
        -9.83508072357073
      ],
      [
        "と診断され，",
        -9.835189661860197
      ],
      [
        "ぜん息",
        -9.836172732794868
      ],
      [
        "シャント",
        -9.836334708861568
      ],
      [
        "の作用",
        -9.83640830400132
      ],
      [
        "統計",
        -9.836442161201555
      ],
      [
        "１か月",
        -9.836498727454442
      ],
      [
        "保険",
        -9.83650452374228
      ],
      [
        "肺胞",
        -9.836512213215284
      ],
      [
        "からなる",
        -9.836997798029053
      ],
      [
        "弱",
        -9.837091395767583
      ],
      [
        "試薬",
        -9.83824123324273
      ],
      [
        "肥厚",
        -9.838313777053212
      ],
      [
        "低血糖",
        -9.838527518901454
      ],
      [
        "料",
        -9.838705687734535
      ],
      [
        "コンピュータ",
        -9.83875380268932
      ],
      [
        "ケ",
        -9.83881060815528
      ],
      [
        "ＨＤ",
        -9.83888778984442
      ],
      [
        "実際に",
        -9.839082591114892
      ],
      [
        "自殺",
        -9.83910423005677
      ],
      [
        "家",
        -9.83945127470052
      ],
      [
        "転",
        -9.839665890630272
      ],
      [
        "転帰",
        -9.84033347291686
      ],
      [
        "起",
        -9.84073683159161
      ],
      [
        "消失した。",
        -9.841987499187193
      ],
      [
        "ｍｌ",
        -9.842183662800492
      ],
      [
        "極めて",
        -9.842574700831191
      ],
      [
        "欧米",
        -9.842829493162276
      ],
      [
        "死亡した。",
        -9.843398365457622
      ],
      [
        "手術適応",
        -9.84390475359332
      ],
      [
        "道",
        -9.844140395927802
      ],
      [
        "抗体価",
        -9.84450015552238
      ],
      [
        "心疾患",
        -9.84484702674157
      ],
      [
        "アミロイド",
        -9.84502278053026
      ],
      [
        "初めて",
        -9.84540760128159
      ],
      [
        "ＭＩ",
        -9.845532312377156
      ],
      [
        "更に",
        -9.845639145043556
      ],
      [
        "が少ない",
        -9.846272162371578
      ],
      [
        "めまい",
        -9.846363743081133
      ],
      [
        "の形態",
        -9.846780015289816
      ],
      [
        "に基づいた",
        -9.847179915866274
      ],
      [
        "４８",
        -9.84720613472601
      ],
      [
        "ことがある。",
        -9.847441862947871
      ],
      [
        "，あるいは",
        -9.847555366109807
      ],
      [
        "重量",
        -9.8477558871717
      ],
      [
        "癌細胞",
        -9.848009437179345
      ],
      [
        "ｃｏ",
        -9.8480149237424
      ],
      [
        "１歳",
        -9.848060037755149
      ],
      [
        "認定",
        -9.848741438997685
      ],
      [
        "軽快",
        -9.848910299782816
      ],
      [
        "局在",
        -9.849816622841484
      ],
      [
        "疲労",
        -9.850328902203804
      ],
      [
        "と考えられている。",
        -9.851151987585292
      ],
      [
        "を受ける",
        -9.8514104229269
      ],
      [
        "の３",
        -9.851612809626696
      ],
      [
        "▁ｐ",
        -9.852012871391528
      ],
      [
        "をもたらす",
        -9.852108644641955
      ],
      [
        "に至る",
        -9.853191090490018
      ],
      [
        "リンパ節郭清",
        -9.853590893800376
      ],
      [
        "▁まず",
        -9.853788430377891
      ],
      [
        "田",
        -9.853958317720224
      ],
      [
        "３つの",
        -9.854526470263927
      ],
      [
        "ＮＡ",
        -9.855139089540696
      ],
      [
        "時，",
        -9.85528112355066
      ],
      [
        "をもとに",
        -9.855311359747729
      ],
      [
        "短期",
        -9.855824917460914
      ],
      [
        "撮像",
        -9.856805171906776
      ],
      [
        "島",
        -9.856938777399687
      ],
      [
        "ドメイン",
        -9.858228011833818
      ],
      [
        "どう",
        -9.858722970855055
      ],
      [
        "しゅ",
        -9.858754398411008
      ],
      [
        "逆流",
        -9.858892060465749
      ],
      [
        "の把握",
        -9.859198774530505
      ],
      [
        "場合に",
        -9.859235830200843
      ],
      [
        "ＬＤＬ",
        -9.859240592681433
      ],
      [
        "によって，",
        -9.85960225033966
      ],
      [
        "推進",
        -9.85983634493008
      ],
      [
        "Ｂ細胞",
        -9.859881566194924
      ],
      [
        "未満の",
        -9.859982787407194
      ],
      [
        "ｉｎｅ",
        -9.8601755227016
      ],
      [
        "正常な",
        -9.860539021325485
      ],
      [
        "これまで",
        -9.860637515949652
      ],
      [
        "老人",
        -9.86094352324984
      ],
      [
        "状態で",
        -9.861163687052755
      ],
      [
        "手術手技",
        -9.861238454923807
      ],
      [
        "▁今回",
        -9.861635382536829
      ],
      [
        "腹腔内",
        -9.861643918033613
      ],
      [
        "自分",
        -9.861835794940056
      ],
      [
        "に加え，",
        -9.861858484477352
      ],
      [
        "広く",
        -9.861870830222571
      ],
      [
        "体位",
        -9.862723959869816
      ],
      [
        "ピン",
        -9.863035797281311
      ],
      [
        "凝集",
        -9.863398835817645
      ],
      [
        "戦略",
        -9.863573183680067
      ],
      [
        "させること",
        -9.863831482235614
      ],
      [
        "不能",
        -9.864416533114474
      ],
      [
        "苦痛",
        -9.864491987478424
      ],
      [
        "下部",
        -9.865051605887937
      ],
      [
        "ＣＲＰ",
        -9.86541762550644
      ],
      [
        "時代",
        -9.865989454308254
      ],
      [
        "ＤＡ",
        -9.866231383175531
      ],
      [
        "夜間",
        -9.86662247002202
      ],
      [
        "緑内障",
        -9.867352387968902
      ],
      [
        "沈着",
        -9.8675503855213
      ],
      [
        "ライン",
        -9.867881361987637
      ],
      [
        "付",
        -9.868069490118195
      ],
      [
        "ゴ",
        -9.86816859068243
      ],
      [
        "三次元",
        -9.868368748514325
      ],
      [
        "疫学",
        -9.868761078713282
      ],
      [
        "１例は",
        -9.868819098490794
      ],
      [
        "Ｃｌ",
        -9.869289129385852
      ],
      [
        "ｔｈ",
        -9.869409623171144
      ],
      [
        "心房細動",
        -9.869913750690053
      ],
      [
        "偽",
        -9.870074124145594
      ],
      [
        "肢",
        -9.870520859990538
      ],
      [
        "配慮",
        -9.870521535753474
      ],
      [
        "現在の",
        -9.870641277752222
      ],
      [
        "を示す。",
        -9.87091517462285
      ],
      [
        "観",
        -9.871160834659602
      ],
      [
        "▁本稿では",
        -9.871728457101629
      ],
      [
        "論文",
        -9.87331858307628
      ],
      [
        "肩関節",
        -9.873331517671726
      ],
      [
        "属",
        -9.873459497544063
      ],
      [
        "特定",
        -9.87390545281767
      ],
      [
        "ＩＳ",
        -9.873976016472234
      ],
      [
        "ＩＴ",
        -9.873996491384366
      ],
      [
        "遺伝性",
        -9.874176309912563
      ],
      [
        "を目的とした",
        -9.874577893619142
      ],
      [
        "ＴＲ",
        -9.874599183564277
      ],
      [
        "ｍｇ／日",
        -9.874775409454632
      ],
      [
        "べき",
        -9.875157673194517
      ],
      [
        "ないし",
        -9.87577221020621
      ],
      [
        "３Ｄ",
        -9.87578164039092
      ],
      [
        "５ｍｍ",
        -9.876224452167037
      ],
      [
        "が異なる",
        -9.876352280384204
      ],
      [
        "発展",
        -9.87648507273927
      ],
      [
        "変換",
        -9.876638350793014
      ],
      [
        "呼吸器",
        -9.876712373918048
      ],
      [
        "ことも",
        -9.87677575706982
      ],
      [
        "ものの，",
        -9.877016831634291
      ],
      [
        "周波数",
        -9.87702170553776
      ],
      [
        "ペ",
        -9.87733679466233
      ],
      [
        "ロン",
        -9.877888622165012
      ],
      [
        "）による",
        -9.878050210439566
      ],
      [
        "指針",
        -9.878385242543764
      ],
      [
        "ＥＰ",
        -9.878744065032434
      ],
      [
        "ＭＣ",
        -9.879527483197402
      ],
      [
        "生物学的",
        -9.879764085179438
      ],
      [
        "四",
        -9.880514697143113
      ],
      [
        "治",
        -9.88062558678823
      ],
      [
        "じ",
        -9.880683025348764
      ],
      [
        "衛生",
        -9.881006188117132
      ],
      [
        "虫",
        -9.881384970773237
      ],
      [
        "最小",
        -9.88145278540885
      ],
      [
        "血液透析",
        -9.881536960483094
      ],
      [
        "＜",
        -9.881553872375829
      ],
      [
        "に関与している",
        -9.881601699962232
      ],
      [
        "０．３",
        -9.881703949873186
      ],
      [
        "卵",
        -9.882427076829488
      ],
      [
        "体幹",
        -9.882428208470357
      ],
      [
        "安静",
        -9.883358989387563
      ],
      [
        "ていない",
        -9.88339772463031
      ],
      [
        "粘液",
        -9.88355289337897
      ],
      [
        "されて",
        -9.884288411796325
      ],
      [
        "１７例",
        -9.884705621065736
      ],
      [
        "短",
        -9.88475188333432
      ],
      [
        "配置",
        -9.884760909319944
      ],
      [
        "進行性",
        -9.884909603898556
      ],
      [
        "が示唆された。",
        -9.885921849792508
      ],
      [
        "を投与した",
        -9.88623662840903
      ],
      [
        "肝障害",
        -9.886804667962444
      ],
      [
        "裂",
        -9.887136823194584
      ],
      [
        "，この",
        -9.887494364774811
      ],
      [
        "供給",
        -9.887685249301075
      ],
      [
        "脂肪酸",
        -9.8879681420303
      ],
      [
        "生活習慣病",
        -9.888100273879203
      ],
      [
        "増",
        -9.888167002396024
      ],
      [
        "結論",
        -9.888247449665773
      ],
      [
        "の流れ",
        -9.88833629097621
      ],
      [
        "表現型",
        -9.88860878674106
      ],
      [
        "ことができる。",
        -9.889036221232738
      ],
      [
        "するため，",
        -9.889064729235995
      ],
      [
        "提案",
        -9.889184730039132
      ],
      [
        "していること",
        -9.88972998850716
      ],
      [
        "Ｆ）",
        -9.889764803557332
      ],
      [
        "以後",
        -9.890034026323562
      ],
      [
        "暴露",
        -9.890107644638327
      ],
      [
        "はみられなかった",
        -9.890493866031504
      ],
      [
        "投与後",
        -9.890591492835805
      ],
      [
        "エン",
        -9.890712602011396
      ],
      [
        "２０１８年",
        -9.891332245217397
      ],
      [
        "４．",
        -9.891463908631428
      ],
      [
        "の危険因子",
        -9.891977895538
      ],
      [
        "増加し，",
        -9.892253043212834
      ],
      [
        "被覆",
        -9.89228812784879
      ],
      [
        "基盤",
        -9.892445737258374
      ],
      [
        "難聴",
        -9.892595166297328
      ],
      [
        "下で",
        -9.892948405642857
      ],
      [
        "作",
        -9.89296562449222
      ],
      [
        "の割合",
        -9.893176971859106
      ],
      [
        "容易に",
        -9.894333912665983
      ],
      [
        "直径",
        -9.894699933160304
      ],
      [
        "との関連性",
        -9.894743849298823
      ],
      [
        "を示唆した",
        -9.894951444444128
      ],
      [
        "水分",
        -9.8951781254382
      ],
      [
        "部位の",
        -9.895611808798856
      ],
      [
[...]
